▁xxunk	0
▁xxpad	0
▁xxbos	0
▁xxeos	0
▁xxfld	0
▁xxrep	0
▁xxwrep	0
▁xxup	0
▁xxmaj	0
<unk>	0
.	-3.35822
▁the	-3.36053
,	-3.44039
s	-3.65888
▁a	-3.91831
▁and	-4.03988
▁to	-4.07009
▁of	-4.08636
'	-4.12304
br	-4.35094
<	-4.36437
▁/>	-4.37703
▁is	-4.43123
▁I	-4.4964
▁in	-4.56385
▁it	-4.61326
▁this	-4.74531
▁that	-4.74711
▁	-4.78637
t	-4.81819
▁was	-5.01776
▁movie	-5.03643
ing	-5.10045
-	-5.12446
▁with	-5.28063
ed	-5.28079
▁for	-5.2994
▁film	-5.32676
▁"	-5.43578
▁but	-5.45052
▁The	-5.45403
▁on	-5.45933
▁you	-5.48501
▁as	-5.50555
▁be	-5.51485
▁have	-5.54324
▁(	-5.58153
ly	-5.58242
▁not	-5.61067
"	-5.65366
▁are	-5.68095
▁one	-5.78021
▁like	-5.86122
▁all	-5.87904
▁at	-5.93437
▁his	-5.94079
y	-5.94629
d	-5.95287
▁they	-5.95463
▁he	-5.95706
)	-5.96846
▁so	-6.00716
▁who	-6.0092
▁an	-6.03077
▁from	-6.03348
▁out	-6.04742
▁just	-6.05585
▁or	-6.06298
?	-6.08201
▁by	-6.08446
▁about	-6.09814
▁some	-6.15772
e	-6.23976
▁has	-6.25444
▁can	-6.25745
▁It	-6.27154
▁good	-6.30131
▁even	-6.30708
!	-6.31153
▁bad	-6.33056
▁there	-6.33627
▁her	-6.33718
▁would	-6.34647
▁no	-6.35414
if	-6.35813
▁up	-6.36036
▁what	-6.38812
▁more	-6.38963
▁were	-6.39442
▁This	-6.40042
▁really	-6.40948
...	-6.41955
▁only	-6.44618
▁me	-6.48001
▁time	-6.51732
▁had	-6.52343
n	-6.53308
▁when	-6.53538
▁see	-6.54818
er	-6.55206
m	-6.57656
▁do	-6.60178
▁very	-6.60752
▁my	-6.62985
The	-6.63218
▁she	-6.63509
▁their	-6.63515
I	-6.6475
▁than	-6.65418
▁get	-6.65761
▁been	-6.6602
▁much	-6.66158
▁make	-6.70236
:	-6.725
▁A	-6.7373
▁story	-6.73793
▁people	-6.74671
▁don	-6.7681
a	-6.7774
▁because	-6.78761
▁which	-6.78823
ve	-6.78844
▁could	-6.79369
re	-6.80657
▁made	-6.8255
▁them	-6.82724
▁any	-6.83063
▁into	-6.83984
▁plot	-6.84321
▁we	-6.84754
▁other	-6.86572
▁how	-6.87797
▁-	-6.88016
▁too	-6.88052
▁will	-6.89349
▁him	-6.90866
▁acting	-6.91742
▁way	-6.95041
▁watch	-6.97596
▁most	-6.97728
▁characters	-6.98516
▁movies	-6.98991
▁think	-7.00087
▁character	-7.00483
▁then	-7.02409
▁ever	-7.03094
r	-7.03779
▁know	-7.03923
▁And	-7.05138
▁first	-7.05253
▁did	-7.06332
▁seen	-7.08772
▁show	-7.09899
▁never	-7.10419
▁better	-7.10641
▁your	-7.11054
▁off	-7.11922
▁well	-7.13123
▁thing	-7.13752
;	-7.14513
al	-7.15457
▁But	-7.1562
▁should	-7.16295
▁end	-7.16702
▁go	-7.16981
▁over	-7.17205
c	-7.18044
▁after	-7.18579
▁being	-7.19277
▁look	-7.19363
▁say	-7.19601
▁films	-7.21078
▁two	-7.21124
i	-7.21534
▁little	-7.23264
).	-7.23824
▁i	-7.246
▁didn	-7.26139
or	-7.26585
▁scene	-7.26631
▁something	-7.27203
es	-7.27286
▁many	-7.27889
▁does	-7.28448
b	-7.30025
▁also	-7.30257
▁where	-7.31595
▁'	-7.32243
▁watching	-7.32399
ll	-7.33871
▁doesn	-7.34884
▁scenes	-7.35342
▁through	-7.36085
▁great	-7.36319
▁nothing	-7.36636
▁There	-7.3836
in	-7.38521
▁these	-7.38866
▁here	-7.39578
▁B	-7.41213
▁actors	-7.41256
▁In	-7.41645
S	-7.4227
▁S	-7.42279
A	-7.42553
o	-7.42704
▁such	-7.43468
▁He	-7.43762
▁actually	-7.43844
▁give	-7.43931
▁worst	-7.44955
▁If	-7.45452
and	-7.46366
▁want	-7.46425
/	-7.46811
▁going	-7.47918
▁its	-7.47977
▁why	-7.4864
▁C	-7.49351
▁minutes	-7.49705
▁find	-7.50174
▁lot	-7.50923
▁script	-7.51129
▁funny	-7.51445
▁again	-7.537
),	-7.53874
▁those	-7.54347
▁back	-7.54754
▁work	-7.55649
▁love	-7.55703
the	-7.56543
▁man	-7.56917
on	-7.57042
▁few	-7.57349
▁part	-7.58459
▁got	-7.59419
▁guy	-7.5968
▁life	-7.59747
▁seem	-7.60412
▁director	-7.61818
▁down	-7.61911
g	-7.62604
▁isn	-7.62936
▁still	-7.63272
▁best	-7.63503
st	-7.6355
▁least	-7.6363
▁before	-7.63648
▁thought	-7.63656
▁real	-7.63662
▁pretty	-7.63992
▁another	-7.64013
▁same	-7.64729
▁old	-7.64754
▁T	-7.64971
▁enough	-7.65816
▁seems	-7.67062
▁un	-7.6722
p	-7.67694
ther	-7.69258
▁around	-7.69569
▁far	-7.70031
▁fact	-7.70251
▁interesting	-7.70925
▁am	-7.71716
▁though	-7.71961
▁big	-7.72252
it	-7.72548
▁every	-7.72764
▁whole	-7.73286
l	-7.7381
▁long	-7.74575
▁us	-7.75682
▁while	-7.75938
▁point	-7.76218
▁What	-7.76485
▁put	-7.77543
able	-7.77699
en	-7.77858
▁poor	-7.78406
▁book	-7.78761
▁money	-7.79196
▁horror	-7.79233
▁anything	-7.79639
▁almost	-7.8011
▁ra	-7.80185
▁They	-7.80269
▁makes	-7.80895
▁done	-7.81101
▁right	-7.81905
▁come	-7.82293
▁boring	-7.82623
▁gets	-7.82989
▁You	-7.83502
▁F	-7.83533
▁might	-7.83938
▁original	-7.84827
▁stupid	-7.85256
▁kind	-7.8572
▁saw	-7.85728
▁take	-7.85762
▁effects	-7.86069
▁believe	-7.86453
▁action	-7.87362
le	-7.87466
▁reason	-7.87712
h	-7.88288
▁cast	-7.88319
▁bit	-7.88446
▁probably	-7.88467
▁years	-7.89435
▁half	-7.9034
▁things	-7.9064
▁must	-7.90802
▁re	-7.90891
th	-7.91203
▁making	-7.91388
▁someone	-7.91395
▁read	-7.91563
▁awful	-7.92255
▁hard	-7.93693
▁idea	-7.94378
▁screen	-7.94719
▁P	-7.94831
▁anyone	-7.95339
▁terrible	-7.95648
an	-7.9591
▁waste	-7.96049
▁comedy	-7.96686
▁without	-7.96798
T	-7.96906
▁feel	-7.96967
▁trying	-7.97581
▁else	-7.97635
▁said	-7.9764
▁now	-7.97843
ers	-7.9863
▁quite	-7.99179
▁So	-7.99184
▁wasn	-8.00203
▁own	-8.01031
▁2	-8.01203
(	-8.01723
▁girl	-8.01879
▁main	-8.01941
▁looking	-8.02217
▁sense	-8.02293
▁between	-8.0285
▁last	-8.03384
te	-8.03424
▁worse	-8.03907
▁sure	-8.0392
▁That	-8.04562
▁tell	-8.04919
".	-8.05268
D	-8.05631
▁goes	-8.05716
▁since	-8.05973
▁young	-8.06081
M	-8.0619
This	-8.06362
as	-8.06625
▁She	-8.07127
w	-8.0713
▁looks	-8.07215
▁away	-8.07307
f	-8.07566
▁found	-8.07781
▁always	-8.07781
▁As	-8.07996
▁mean	-8.082
▁music	-8.08262
▁new	-8.08564
ri	-8.09395
▁turn	-8.09446
ic	-8.09625
ting	-8.09637
▁role	-8.10323
ion	-8.11382
▁TV	-8.11827
▁watched	-8.12768
▁actor	-8.12826
▁fun	-8.1298
▁comes	-8.13462
▁place	-8.13688
man	-8.15784
▁everything	-8.15944
▁short	-8.16531
u	-8.17046
▁supposed	-8.17062
▁keep	-8.17145
▁course	-8.17146
C	-8.17537
▁may	-8.17828
▁let	-8.17842
▁special	-8.17853
▁10	-8.18307
▁rent	-8.18395
▁&	-8.185
▁play	-8.18783
▁rest	-8.18895
▁woman	-8.19032
▁couldn	-8.1962
▁No	-8.19645
▁fan	-8.19824
▁worth	-8.20006
k	-8.20074
▁world	-8.2032
--	-8.20503
▁three	-8.20907
▁times	-8.2132
▁left	-8.21573
E	-8.22149
▁set	-8.23071
el	-8.23322
▁dialogue	-8.23502
▁Not	-8.23549
up	-8.23622
▁M	-8.23643
il	-8.24046
▁low	-8.24136
▁understand	-8.2419
▁guess	-8.24286
▁both	-8.24629
▁performance	-8.24911
▁3	-8.25072
▁audience	-8.25552
N	-8.26057
▁For	-8.26167
▁wrong	-8.26173
▁absolute	-8.26829
▁instead	-8.26829
▁American	-8.27105
",	-8.27182
▁sex	-8.27308
▁ending	-8.27311
▁horrible	-8.2751
▁hav	-8.28122
▁less	-8.28252
▁production	-8.28261
to	-8.28713
less	-8.28835
▁budget	-8.2909
▁mind	-8.29321
▁day	-8.2941
It	-8.29433
se	-8.295
▁act	-8.2983
▁completely	-8.2985
▁name	-8.29895
is	-8.30173
▁played	-8.30229
▁yet	-8.30279
▁camera	-8.30329
▁series	-8.30346
▁attempt	-8.30524
▁person	-8.3067
ch	-8.30676
ness	-8.30727
▁simply	-8.30992
O	-8.31386
▁try	-8.31804
▁All	-8.31998
▁become	-8.32448
▁--	-8.32652
▁head	-8.32689
▁friend	-8.32876
▁DVD	-8.3314
▁either	-8.33158
ie	-8.33239
▁getting	-8.33316
▁When	-8.3333
▁used	-8.33674
▁D	-8.33683
ity	-8.34048
▁help	-8.3477
▁high	-8.34801
▁line	-8.34985
▁certain	-8.35315
▁himself	-8.35315
▁job	-8.35316
▁enjoy	-8.35511
▁We	-8.35517
ar	-8.35905
▁G	-8.36137
at	-8.36262
▁To	-8.36694
▁couple	-8.36802
ce	-8.36963
▁dur	-8.37139
▁cinema	-8.37245
▁full	-8.37893
▁wanted	-8.38065
▁ga	-8.38149
▁together	-8.38312
▁sort	-8.38757
est	-8.38807
▁each	-8.39078
▁face	-8.39352
▁H	-8.39383
▁doing	-8.39666
▁under	-8.39864
▁laugh	-8.39951
one	-8.40073
▁start	-8.40712
ies	-8.40785
▁run	-8.40912
▁use	-8.41261
▁need	-8.4149
▁title	-8.41764
ur	-8.41892
▁shot	-8.42039
R	-8.42253
▁video	-8.43058
▁plays	-8.43059
▁friends	-8.44222
▁near	-8.44584
▁family	-8.44605
▁especially	-8.44693
P	-8.44917
▁entire	-8.45019
▁problem	-8.45278
ra	-8.45321
▁sound	-8.45335
ir	-8.45338
▁women	-8.45401
▁seeing	-8.45427
▁decent	-8.45431
▁John	-8.45473
▁cheap	-8.45822
▁crap	-8.46086
▁usual	-8.46255
▁went	-8.46279
▁year	-8.46289
▁came	-8.46446
▁along	-8.46464
▁once	-8.4669
K	-8.46869
▁itself	-8.47053
▁version	-8.47065
▁wonder	-8.47132
▁care	-8.47361
▁E	-8.48068
▁THE	-8.49034
▁guys	-8.49054
▁lines	-8.49211
tic	-8.49336
▁piece	-8.49505
▁throw	-8.49569
▁case	-8.49572
▁W	-8.49746
▁different	-8.50059
▁My	-8.50118
▁	-8.50434
▁dull	-8.50435
▁lack	-8.50658
▁men	-8.50732
ous	-8.50777
▁Don	-8.51472
▁sit	-8.51617
▁our	-8.51667
▁given	-8.51709
ation	-8.5174
▁O	-8.51947
v	-8.51997
▁annoying	-8.52155
▁black	-8.52233
▁hour	-8.52282
no	-8.52769
▁home	-8.53068
▁maybe	-8.53157
▁hope	-8.53334
▁example	-8.53935
▁However	-8.54072
ish	-8.54426
ive	-8.54474
▁small	-8.54843
▁night	-8.54881
▁game	-8.54904
▁leave	-8.55145
▁remember	-8.55225
▁kids	-8.55245
▁nice	-8.55319
▁At	-8.55333
B	-8.55343
▁playing	-8.5569
▁everyone	-8.55789
▁How	-8.55885
▁5	-8.56484
▁school	-8.567
▁Why	-8.56777
▁close	-8.57001
▁killed	-8.57044
▁takes	-8.5726
."	-8.57749
▁recommend	-8.57939
L	-8.58143
▁true	-8.58498
▁shows	-8.58573
▁b	-8.5867
ro	-8.58842
▁next	-8.59397
▁dead	-8.60042
▁moments	-8.60156
▁later	-8.60402
▁Oh	-8.60554
▁star	-8.60879
ent	-8.60976
▁save	-8.61087
▁Well	-8.6146
▁One	-8.61792
▁R	-8.62158
us	-8.62158
▁wait	-8.62255
▁Hollywood	-8.62292
▁second	-8.62574
▁complete	-8.62892
▁top	-8.63057
In	-8.63132
▁quality	-8.63254
▁After	-8.63361
▁Even	-8.6339
W	-8.63453
▁death	-8.63576
▁myself	-8.64206
▁wife	-8.6426
▁until	-8.64374
▁obvious	-8.64817
▁Do	-8.64833
▁L	-8.65069
▁tries	-8.65196
▁town	-8.65347
tally	-8.65385
▁talk	-8.65581
▁cut	-8.66085
▁father	-8.66243
▁flick	-8.6663
▁car	-8.66891
▁call	-8.67096
▁already	-8.67206
▁direction	-8.67222
▁won	-8.67224
z	-8.67405
G	-8.67525
▁side	-8.67696
▁1	-8.67737
▁sever	-8.67805
▁talent	-8.68177
▁felt	-8.68227
▁Also	-8.68312
ia	-8.68408
▁kid	-8.68838
▁Mr	-8.68919
▁children	-8.69262
▁written	-8.69384
▁house	-8.69386
▁stars	-8.69728
▁stop	-8.69744
▁called	-8.69925
ul	-8.70225
▁stuff	-8.70302
▁Now	-8.70538
▁Of	-8.70876
▁type	-8.70933
▁viewer	-8.70977
▁boy	-8.71035
▁humor	-8.71336
▁beginning	-8.71357
▁etc	-8.7136
▁fair	-8.71378
▁predictable	-8.71387
▁co	-8.719
▁slow	-8.72043
▁expect	-8.72336
▁truly	-8.72416
ne	-8.72416
▁entertaining	-8.72492
▁mess	-8.7262
he	-8.72792
▁dialog	-8.73018
▁consider	-8.731
▁extreme	-8.73491
▁beautiful	-8.73491
▁early	-8.73532
▁fight	-8.73634
▁style	-8.73676
ry	-8.7381
▁lead	-8.74212
▁started	-8.74219
1	-8.74445
▁wish	-8.74592
3	-8.74688
▁thinking	-8.74802
what	-8.74844
If	-8.7509
▁kill	-8.75095
ist	-8.75103
▁c	-8.75359
▁die	-8.75397
▁soon	-8.75406
▁however	-8.7574
▁OK	-8.75801
lo	-8.75824
▁son	-8.76357
▁often	-8.7683
F	-8.76993
▁killer	-8.77083
▁daughter	-8.77912
▁group	-8.77914
▁throughout	-8.77959
▁cannot	-8.78057
▁hand	-8.78084
▁girls	-8.78882
ment	-8.78995
*	-8.78997
▁writing	-8.7912
▁With	-8.79186
▁wasted	-8.79242
▁novel	-8.79879
▁K	-8.79988
im	-8.80006
fi	-8.80496
▁de	-8.80506
▁others	-8.80522
▁Man	-8.80914
▁rating	-8.81561
id	-8.81697
▁Some	-8.81719
!!	-8.81904
ful	-8.82437
▁mother	-8.82555
▁possible	-8.82562
▁child	-8.82587
▁lame	-8.82644
ling	-8.82654
▁Be	-8.82961
me	-8.8299
▁wouldn	-8.83081
▁themselves	-8.83727
▁weak	-8.83808
▁pay	-8.83809
am	-8.83842
▁Just	-8.83874
▁De	-8.83969
▁4	-8.84225
la	-8.84615
▁blood	-8.84695
ck	-8.84795
li	-8.84867
▁word	-8.84896
▁bunch	-8.84932
▁based	-8.85029
um	-8.85278
▁heard	-8.85325
but	-8.85536
▁classic	-8.8561
▁cover	-8.85642
▁ridiculous	-8.85759
▁move	-8.85915
▁yourself	-8.86152
ian	-8.86268
▁although	-8.86312
▁sad	-8.86975
▁fans	-8.87458
▁interest	-8.87512
▁non	-8.87737
▁starts	-8.87769
▁turns	-8.87969
▁cause	-8.88157
▁saying	-8.88182
▁Then	-8.88281
ton	-8.88372
▁voice	-8.88513
▁sorry	-8.88636
▁lost	-8.88669
▁happen	-8.88713
ter	-8.88752
▁hate	-8.88869
2	-8.89118
▁war	-8.89621
▁history	-8.89903
▁space	-8.89941
▁obviously	-8.90406
▁art	-8.90519
ant	-8.90555
▁stay	-8.90594
▁poorly	-8.91063
▁U	-8.91077
▁tried	-8.91184
▁says	-8.91195
▁His	-8.91285
ty	-8.9147
▁bring	-8.91682
▁parts	-8.91796
H	-8.91818
ism	-8.91874
▁heart	-8.91927
▁write	-8.92385
▁subject	-8.92483
▁spend	-8.92485
▁happens	-8.92535
▁God	-8.92691
And	-8.93056
▁talking	-8.93288
There	-8.93437
▁dumb	-8.93652
▁order	-8.94029
▁shots	-8.94137
cross	-8.94299
▁dog	-8.94366
sh	-8.94505
▁took	-8.94544
▁ten	-8.94797
▁serious	-8.94803
▁live	-8.94941
▁performances	-8.94943
▁involved	-8.9519
▁monster	-8.95197
▁evil	-8.9528
▁coming	-8.95681
▁g	-8.96337
!!!	-8.96442
▁Or	-8.96486
▁drama	-8.96551
▁white	-8.9656
▁jokes	-8.9737
ted	-8.97623
▁clear	-8.97641
▁hours	-8.9777
▁behind	-8.97853
▁premise	-8.97853
ary	-8.98447
▁gore	-8.98535
▁told	-8.98611
▁shown	-8.98805
▁manage	-8.98936
▁actress	-8.99214
▁running	-8.99256
▁Maybe	-8.99334
co	-8.99358
▁matter	-8.99475
▁finally	-8.99608
▁clearly	-8.99628
Y	-8.99726
ard	-8.99788
▁total	-8.9981
be	-9.00162
So	-9.00464
▁dark	-9.00624
▁hell	-9.00625
▁local	-9.00652
▁genre	-9.00668
▁cool	-9.00714
▁Unfortunately	-9.00788
▁fine	-9.00812
▁sequences	-9.00824
▁moment	-9.00926
▁J	-9.00997
em	-9.01068
▁Star	-9.01392
der	-9.01695
▁20	-9.01951
▁past	-9.02112
▁editing	-9.02141
▁First	-9.0234
▁Yes	-9.02407
▁final	-9.02792
!)	-9.02798
of	-9.02979
U	-9.03065
▁late	-9.03503
▁bother	-9.03512
yond	-9.03516
▁basically	-9.03553
ally	-9.03564
▁storyline	-9.03593
▁directed	-9.03909
▁liked	-9.03922
age	-9.03924
ac	-9.04214
▁ask	-9.04679
▁cheesy	-9.04999
▁pathetic	-9.04999
▁silly	-9.04999
▁unless	-9.051
▁room	-9.05151
un	-9.05199
▁dis	-9.05422
▁cop	-9.05528
▁none	-9.05553
!"	-9.05954
▁*	-9.06026
▁f	-9.06048
ger	-9.0606
▁stand	-9.06427
▁female	-9.06491
▁released	-9.06742
taking	-9.06744
▁review	-9.06759
▁add	-9.06765
▁opening	-9.0688
▁effort	-9.06899
▁human	-9.06943
na	-9.07
ha	-9.07014
▁pass	-9.07496
▁known	-9.07666
ble	-9.07943
▁self	-9.07989
▁straight	-9.08006
▁material	-9.08006
▁large	-9.08009
▁begin	-9.08022
▁exactly	-9.08097
▁Michael	-9.08142
▁apparently	-9.08145
▁decided	-9.08213
son	-9.08238
▁hero	-9.08258
not	-9.08296
out	-9.08647
But	-9.08728
▁feeling	-9.08742
▁train	-9.09058
▁kne	-9.09106
ad	-9.09473
x	-9.09485
▁On	-9.09529
▁attention	-9.09545
▁garbage	-9.09545
▁stories	-9.09545
▁footage	-9.09548
▁disappointed	-9.09557
▁NOT	-9.096
▁doubt	-9.09605
▁please	-9.0961
▁David	-9.09624
et	-9.09657
▁view	-9.0993
▁result	-9.10015
▁taken	-9.10046
▁joke	-9.1009
▁writer	-9.10297
pe	-9.10302
like	-9.10442
go	-9.10631
▁check	-9.10672
▁documentary	-9.11108
▁aren	-9.11115
▁huge	-9.11134
▁expected	-9.11863
who	-9.11902
▁experience	-9.12441
movie	-9.12457
▁light	-9.12552
▁New	-9.12679
▁middle	-9.12695
▁suspense	-9.12733
▁eye	-9.12738
▁male	-9.12739
mo	-9.12998
▁picture	-9.13222
▁break	-9.13263
time	-9.13287
▁p	-9.13318
ine	-9.13323
▁happened	-9.13346
▁comment	-9.13406
▁fails	-9.13447
▁eyes	-9.13654
▁trouble	-9.14307
▁kept	-9.14309
▁English	-9.14328
▁definitely	-9.14338
▁walk	-9.14431
▁fake	-9.14446
▁ago	-9.14754
▁gay	-9.14914
▁Dr	-9.15782
▁spent	-9.15955
▁somehow	-9.16009
▁except	-9.16025
▁pointless	-9.1605
▁murder	-9.16128
▁Robert	-9.1615
▁forward	-9.16208
▁ends	-9.16477
What	-9.1678
which	-9.1678
▁minute	-9.16849
▁An	-9.16922
▁shoot	-9.16996
▁needed	-9.17078
▁explain	-9.17096
▁mention	-9.17108
▁class	-9.17368
▁...	-9.17385
▁badly	-9.17409
▁fire	-9.17528
ng	-9.17592
▁general	-9.17614
▁sleep	-9.17615
▁N	-9.17622
▁project	-9.17636
rs	-9.17678
▁hair	-9.17711
▁reality	-9.17727
▁thriller	-9.17794
▁among	-9.18002
▁career	-9.18168
▁named	-9.18248
▁wants	-9.18341
▁due	-9.18565
▁works	-9.18799
▁reviews	-9.18809
lan	-9.18841
▁sh	-9.18853
off	-9.18972
▁t	-9.19042
▁chance	-9.19316
▁crew	-9.19322
▁husband	-9.1933
▁perhaps	-9.19359
▁free	-9.1948
▁words	-9.19525
▁particularly	-9.19587
ud	-9.1966
▁respect	-9.20035
▁brother	-9.2015
land	-9.20279
▁nor	-9.20831
▁incredibl	-9.20833
ated	-9.20907
▁four	-9.21007
▁okay	-9.21033
▁potential	-9.21033
▁team	-9.21033
▁imagine	-9.21043
side	-9.21055
▁police	-9.21055
▁single	-9.21059
▁forced	-9.21196
▁fast	-9.2125
ick	-9.21322
▁number	-9.21926
▁theater	-9.21939
▁upon	-9.21944
ance	-9.22058
5	-9.22176
▁island	-9.22429
▁80	-9.2259
ma	-9.22667
▁ex	-9.2271
▁list	-9.22723
per	-9.22759
▁lives	-9.2276
▁above	-9.22787
▁violence	-9.2281
▁w	-9.22912
....	-9.22933
▁surprised	-9.23004
old	-9.23014
▁pick	-9.23211
for	-9.23221
▁body	-9.233
ped	-9.23762
de	-9.23897
▁days	-9.2405
0	-9.24054
▁hit	-9.24481
▁IMDb	-9.24573
▁computer	-9.24573
▁cinematography	-9.24581
▁amount	-9.24611
▁water	-9.24663
ut	-9.24687
▁bored	-9.247
ever	-9.24707
▁scary	-9.24713
▁problems	-9.24851
▁copy	-9.2495
▁parents	-9.24979
▁seriously	-9.25086
▁e	-9.25091
▁value	-9.25636
way	-9.25656
▁gun	-9.25672
▁super	-9.26323
giving	-9.26391
▁plain	-9.26393
▁alone	-9.26395
▁trash	-9.26397
▁attack	-9.26402
▁five	-9.2648
▁Movie	-9.26523
▁forget	-9.26589
▁credits	-9.26619
ta	-9.26809
▁appear	-9.26973
▁haven	-9.26974
ig	-9.27206
▁change	-9.27282
▁filmmakers	-9.27309
▁Bo	-9.27707
▁hold	-9.27718
▁perfect	-9.27855
▁knows	-9.27954
▁figure	-9.27976
ite	-9.28084
▁La	-9.28189
▁possibly	-9.28243
▁disappointment	-9.28244
▁blow	-9.28362
▁taste	-9.28402
▁whatever	-9.28419
?)	-9.28693
▁falls	-9.28696
ure	-9.28811
▁Re	-9.28845
▁hear	-9.28907
mp	-9.29266
op	-9.29284
▁level	-9.29437
▁song	-9.29619
▁laughing	-9.29738
▁actual	-9.29764
▁War	-9.29854
▁today	-9.29891
▁hilarious	-9.3013
▁sudden	-9.3013
▁weird	-9.30131
▁unfunny	-9.30134
▁gang	-9.30159
▁despi	-9.30168
▁soundtrack	-9.3017
▁entertainment	-9.30173
▁r	-9.30336
▁quickly	-9.30344
▁killing	-9.30428
▁Whil	-9.30463
ate	-9.30558
▁needs	-9.30661
▁Van	-9.3072
▁Ro	-9.31202
▁comments	-9.31257
▁episode	-9.31397
ow	-9.3155
▁shame	-9.31782
▁decide	-9.31793
▁period	-9.32053
▁excuse	-9.32053
▁Disney	-9.32094
▁anyway	-9.3217
▁30	-9.32172
▁failed	-9.32233
our	-9.32326
day	-9.32528
▁deal	-9.32658
7	-9.33144
▁enjoyed	-9.33403
▁portray	-9.33416
▁learn	-9.33492
pp	-9.33599
▁hot	-9.33663
▁release	-9.33774
▁whe	-9.33778
▁positive	-9.34013
▁living	-9.34013
▁development	-9.34023
▁box	-9.34025
▁score	-9.34025
▁mostly	-9.34086
▁barely	-9.34104
▁god	-9.3433
▁ma	-9.34381
ley	-9.34497
ge	-9.34657
▁Let	-9.34767
▁Me	-9.34775
tro	-9.35061
we	-9.3523
ub	-9.35585
▁showing	-9.35836
▁remote	-9.36013
▁steal	-9.36031
▁simple	-9.36036
▁sick	-9.36037
▁George	-9.36073
nt	-9.36526
▁appears	-9.36818
▁age	-9.37068
▁Ed	-9.37125
▁sequel	-9.37464
▁agree	-9.37919
▁loved	-9.37936
▁public	-9.38054
▁nudity	-9.38054
▁whatsoever	-9.38054
▁sister	-9.38054
▁country	-9.38092
▁third	-9.38115
▁Nothing	-9.38117
▁million	-9.3814
▁including	-9.38187
▁bar	-9.38601
▁toward	-9.38664
▁villain	-9.38819
▁viewers	-9.39024
▁expecting	-9.39248
po	-9.39361
▁power	-9.39676
▁crime	-9.40137
▁typical	-9.40137
▁purpose	-9.40139
▁average	-9.40201
▁Instead	-9.40218
▁gone	-9.40327
▁Who	-9.40419
▁Bad	-9.40636
▁overall	-9.40827
▁flat	-9.40837
?"	-9.40895
▁fall	-9.41172
▁feature	-9.41239
▁deliver	-9.41269
▁fighting	-9.41338
so	-9.41343
came	-9.41415
▁con	-9.41455
▁strange	-9.4167
▁These	-9.41901
▁within	-9.41902
▁surprise	-9.42004
ot	-9.42046
▁major	-9.42241
Perhaps	-9.42265
▁girlfriend	-9.42265
▁redeem	-9.42265
▁Wood	-9.42266
▁Jack	-9.42411
▁Ray	-9.42488
▁alien	-9.42628
To	-9.42807
▁sci	-9.42984
▁offer	-9.43259
do	-9.4362
▁Her	-9.43661
that	-9.43727
this	-9.44096
▁ho	-9.44108
aw	-9.44346
wo	-9.44369
▁clever	-9.44412
▁future	-9.44439
▁suggest	-9.44439
▁contain	-9.44439
▁easy	-9.44439
▁neither	-9.44441
▁dreadful	-9.4445
▁easily	-9.4446
▁message	-9.44464
▁believable	-9.44474
▁By	-9.44492
▁military	-9.44504
▁h	-9.44507
▁setting	-9.44561
▁modern	-9.44562
▁band	-9.44582
▁famous	-9.44597
▁Although	-9.44695
▁Most	-9.44702
▁makers	-9.44877
▁points	-9.45001
▁ended	-9.4503
▁Tom	-9.45084
▁eat	-9.4514
▁form	-9.45443
▁meant	-9.45692
▁fr	-9.45715
▁acted	-9.46072
ious	-9.46154
▁opinion	-9.46253
▁Mo	-9.46335
by	-9.46366
▁chase	-9.4637
▁create	-9.46634
▁cartoon	-9.46661
▁Oscar	-9.46661
▁background	-9.46664
▁further	-9.46669
▁remake	-9.46672
▁Mar	-9.46674
▁excellent	-9.4669
▁Like	-9.46778
ain	-9.46807
▁moving	-9.46823
▁wonderful	-9.47034
▁rip	-9.47077
▁missing	-9.47189
▁laughs	-9.47404
▁roles	-9.47732
▁fit	-9.47861
ag	-9.48032
with	-9.48114
▁twist	-9.48236
▁Co	-9.48433
▁brain	-9.48546
▁sequence	-9.48653
▁credit	-9.48717
▁admit	-9.48934
▁front	-9.48934
om	-9.4894
▁sometimes	-9.48942
My	-9.49175
▁90	-9.49227
▁bigge	-9.49334
▁plan	-9.49371
▁pre	-9.49531
▁Ma	-9.49713
▁appreciate	-9.49797
led	-9.49885
ner	-9.50072
ang	-9.50214
▁reasons	-9.50361
work	-9.50426
▁ch	-9.50577
▁writers	-9.50618
ke	-9.5073
men	-9.50743
▁pull	-9.50829
▁relationship	-9.50952
▁accent	-9.50989
▁suppose	-9.50998
▁prove	-9.51082
▁V	-9.51083
▁French	-9.5126
▁smart	-9.5126
▁odd	-9.5126
▁herself	-9.51261
▁crazy	-9.51262
▁random	-9.51263
▁mix	-9.51264
▁earth	-9.51268
▁screenplay	-9.51274
▁similar	-9.51291
▁unbelievable	-9.51333
▁creepy	-9.51356
▁Scott	-9.51372
▁Ch	-9.51454
▁yes	-9.51598
▁Indian	-9.51695
As	-9.51892
▁episodes	-9.5206
ee	-9.5207
gu	-9.52194
▁open	-9.52282
▁direct	-9.52531
▁spirit	-9.52628
ach	-9.5263
right	-9.5275
▁insult	-9.52989
▁present	-9.53104
▁provide	-9.53168
▁question	-9.53406
ep	-9.5343
▁confusing	-9.53641
▁stick	-9.53649
▁suspect	-9.53692
▁Peter	-9.53734
▁9	-9.53766
▁From	-9.53794
▁pure	-9.5382
▁ideas	-9.54226
▁ship	-9.54301
▁members	-9.54351
▁rate	-9.54553
8	-9.54681
▁follow	-9.54711
▁70	-9.54794
os	-9.54966
For	-9.55399
over	-9.55439
wa	-9.5551
▁party	-9.55516
▁Lee	-9.55597
coming	-9.55648
au	-9.55651
▁deserve	-9.55674
▁painful	-9.55706
tor	-9.55971
▁concept	-9.5608
▁political	-9.56081
▁baby	-9.56082
▁blame	-9.56085
▁disappointing	-9.56103
▁James	-9.56155
va	-9.56173
▁Lo	-9.5619
io	-9.56207
▁filmed	-9.56277
▁Go	-9.56325
▁events	-9.56624
???	-9.56707
▁directing	-9.56721
▁holes	-9.56847
▁land	-9.57093
ning	-9.57127
▁air	-9.57133
▁Ra	-9.57231
you	-9.57233
▁Can	-9.57237
ring	-9.57277
ily	-9.57292
ster	-9.57549
some	-9.57961
ey	-9.58004
V	-9.58201
▁pace	-9.58317
▁avoid	-9.58379
▁sets	-9.58455
▁situation	-9.5851
▁stage	-9.58544
▁hop	-9.58574
▁atmosphere	-9.5858
▁strong	-9.5858
▁bought	-9.58588
▁battle	-9.58657
▁Good	-9.58659
▁Dead	-9.58701
▁laughable	-9.58718
4	-9.58831
▁utterly	-9.58905
▁vari	-9.58925
▁cat	-9.5914
red	-9.59236
uff	-9.59291
▁sc	-9.59469
ities	-9.59695
▁highly	-9.59902
▁Here	-9.59937
▁considering	-9.60043
▁hands	-9.60227
▁speak	-9.6045
One	-9.60521
▁buy	-9.60585
ide	-9.60607
▁German	-9.60832
▁camp	-9.6099
▁anti	-9.61091
▁rock	-9.61134
▁bizarre	-9.61144
▁channel	-9.61144
▁promise	-9.61148
▁vote	-9.61152
You	-9.61157
▁violent	-9.61177
▁British	-9.61179
▁nowhere	-9.61235
▁happy	-9.61265
▁nobody	-9.61301
ho	-9.61378
▁Did	-9.61435
?!	-9.6148
▁musical	-9.6151
▁watchable	-9.61735
da	-9.61801
▁remind	-9.61879
ized	-9.61951
ear	-9.62027
▁viewing	-9.62177
▁values	-9.62246
▁boys	-9.62324
ah	-9.62507
pa	-9.6252
")	-9.62653
ball	-9.62959
nna	-9.63284
▁working	-9.6338
▁previous	-9.63382
hi	-9.63462
▁torture	-9.63504
▁lose	-9.63547
▁travel	-9.63774
▁bottom	-9.63775
▁truck	-9.63775
▁design	-9.63776
▁failure	-9.6378
▁studio	-9.63789
▁store	-9.63805
▁unlike	-9.63813
▁notice	-9.6383
▁slasher	-9.63833
▁week	-9.63873
line	-9.63877
▁match	-9.63887
J	-9.63898
▁Watch	-9.64092
▁brough	-9.64353
▁state	-9.64524
▁sat	-9.6455
act	-9.64591
ake	-9.64638
ial	-9.6482
▁interested	-9.64883
▁miss	-9.64912
▁lo	-9.65051
9	-9.65204
▁compar	-9.65257
▁door	-9.65263
▁d	-9.65373
▁means	-9.65443
▁cross	-9.65472
ating	-9.65676
▁Ar	-9.65743
mm	-9.65816
▁build	-9.65853
▁15	-9.66104
▁Al	-9.6619
ably	-9.6621
ER	-9.66244
▁realize	-9.66249
▁escape	-9.66262
ol	-9.6628
ber	-9.66316
▁zombies	-9.66323
▁track	-9.66478
▁ultimate	-9.66478
▁approach	-9.66478
▁amusing	-9.66479
▁disaster	-9.66481
▁wooden	-9.66486
▁sign	-9.66493
▁otherwise	-9.66517
▁favorite	-9.6654
▁pro	-9.66548
▁secret	-9.66579
▁adaptation	-9.66624
▁master	-9.66625
▁zombie	-9.66692
▁record	-9.66742
▁Every	-9.66767
▁sounds	-9.6688
▁Anyway	-9.66891
ler	-9.67049
▁tough	-9.67104
▁la	-9.67635
▁uses	-9.67794
oo	-9.67838
rew	-9.6787
▁King	-9.6799
▁leading	-9.68037
▁sucks	-9.68067
lin	-9.68119
light	-9.68326
budget	-9.6842
▁producers	-9.68434
▁comic	-9.68837
▁sexual	-9.68955
▁trip	-9.69063
▁amazing	-9.69068
▁meet	-9.6916
▁m	-9.69162
▁mere	-9.69222
▁favor	-9.69247
▁Joe	-9.69256
▁fault	-9.69256
▁equal	-9.69256
▁company	-9.69256
▁conclusion	-9.69256
▁connection	-9.69277
▁CGI	-9.69284
▁confused	-9.69304
▁romantic	-9.69316
▁ground	-9.6932
lic	-9.69389
▁intended	-9.69396
▁rich	-9.69411
tch	-9.69423
ible	-9.69435
▁visual	-9.69443
ap	-9.69593
den	-9.69763
▁mad	-9.69822
king	-9.69923
▁dad	-9.7013
▁kills	-9.70257
ical	-9.70277
▁leads	-9.70279
▁entirely	-9.70585
ink	-9.70821
uch	-9.70847
▁inside	-9.70993
▁business	-9.71351
▁6	-9.71394
even	-9.71478
ail	-9.7159
▁return	-9.71838
▁dance	-9.71886
▁suit	-9.71897
▁post	-9.72007
die	-9.72062
▁Jim	-9.72066
	-9.72113
▁convincing	-9.72113
▁difficult	-9.72113
▁rubbish	-9.72113
▁television	-9.72113
▁FBI	-9.72113
▁basic	-9.7212
▁stock	-9.7212
▁alive	-9.72123
▁pretentious	-9.7215
▁Richard	-9.72153
▁extra	-9.72171
▁cliché	-9.72195
▁somewhere	-9.7223
▁focus	-9.72262
▁Seagal	-9.72273
▁Sam	-9.72274
▁Another	-9.72375
▁produced	-9.72389
▁remain	-9.72394
▁creature	-9.72402
▁drug	-9.72418
▁theme	-9.72471
involving	-9.72493
Don	-9.72514
body	-9.72533
▁telling	-9.72638
▁supporting	-9.72646
les	-9.72886
▁hated	-9.72928
ade	-9.73024
▁ran	-9.73032
▁pr	-9.73799
good	-9.74238
▁cops	-9.7428
bad	-9.74353
▁hardly	-9.74412
ney	-9.7442
▁deep	-9.74687
▁exist	-9.74829
end	-9.74888
▁America	-9.74909
▁Shirley	-9.75054
▁World	-9.75054
▁exciting	-9.75054
▁unnecessary	-9.75054
▁animation	-9.75054
▁tedious	-9.75054
▁indeed	-9.75063
▁crappy	-9.75066
▁science	-9.75068
▁tale	-9.75084
▁utter	-9.75092
▁boyfriend	-9.75093
▁tired	-9.75094
▁anymore	-9.751
▁Steven	-9.75149
▁fear	-9.75161
▁Film	-9.7518
▁Paul	-9.75234
▁unfortunately	-9.75288
▁Jones	-9.75349
ver	-9.75372
▁scientist	-9.75394
▁feels	-9.75403
AN	-9.75407
▁created	-9.75648
▁rare	-9.75852
▁mentioned	-9.75977
▁!	-9.76334
▁compare	-9.76409
▁spot	-9.76411
▁apart	-9.76422
▁50	-9.77198
film	-9.77251
▁discover	-9.77275
▁fill	-9.77317
▁Tim	-9.77419
▁appeal	-9.77451
▁develop	-9.77549
▁finish	-9.77568
▁clichés	-9.77758
top	-9.77768
▁meets	-9.77852
lu	-9.77853
▁count	-9.77893
▁st	-9.78002
▁thin	-9.78067
▁earlier	-9.78084
▁content	-9.78085
▁impossible	-9.78085
▁green	-9.78088
▁caught	-9.7809
▁impression	-9.78094
▁boat	-9.78105
▁Bruce	-9.7815
▁wrote	-9.7815
▁saving	-9.782
▁mouth	-9.78307
▁fish	-9.78308
▁City	-9.78326
▁books	-9.78496
▁mistake	-9.78581
ier	-9.78684
▁finished	-9.78696
▁Please	-9.78792
▁allow	-9.78858
▁Day	-9.78865
▁younger	-9.78895
▁mis	-9.78996
que	-9.79087
▁th	-9.7922
ship	-9.79325
▁win	-9.79679
ran	-9.7969
▁fl	-9.7977
▁worked	-9.79773
▁mo	-9.79838
▁exception	-9.80267
bi	-9.80375
▁leav	-9.8045
▁Rock	-9.80456
▁cr	-9.80458
▁honest	-9.80544
▁loose	-9.80827
??	-9.80931
▁Dan	-9.8094
▁include	-9.80942
▁o	-9.80965
▁emotional	-9.80995
▁wild	-9.81208
▁empty	-9.81209
▁immediately	-9.81209
▁machine	-9.81209
▁lousy	-9.81209
▁forgettable	-9.8121
▁popular	-9.8121
▁nonsense	-9.81211
▁bright	-9.81235
▁sake	-9.81241
▁desperate	-9.81251
▁literally	-9.8133
▁send	-9.81331
▁dramatic	-9.81336
▁hurt	-9.81353
▁irritating	-9.81396
▁realistic	-9.814
▁allowed	-9.81741
▁presented	-9.81894
▁catch	-9.81914
▁starr	-9.81921
▁portrayed	-9.82044
▁soldiers	-9.82085
▁cap	-9.82222
gg	-9.82271
▁added	-9.82299
▁longer	-9.82354
▁control	-9.82495
▁n	-9.82554
▁stereotypes	-9.82567
▁touch	-9.82618
▁songs	-9.82692
action	-9.83043
making	-9.83157
▁Ho	-9.83254
When	-9.836
▁Ha	-9.83674
well	-9.83715
▁force	-9.83805
▁particular	-9.84055
On	-9.84056
▁cute	-9.84202
ld	-9.84235
▁ways	-9.84257
though	-9.84323
▁teenage	-9.84348
▁limit	-9.84435
▁Smith	-9.84435
▁awkward	-9.84435
▁commercial	-9.84435
▁familiar	-9.84435
▁Norris	-9.84435
▁insane	-9.84436
▁whom	-9.84436
▁tension	-9.84438
▁food	-9.84439
cu	-9.8444
▁season	-9.84445
▁mediocre	-9.84471
▁porn	-9.84472
kin	-9.84473
▁western	-9.84478
▁impressive	-9.84482
▁carry	-9.84488
dy	-9.84489
▁manner	-9.84514
▁personal	-9.84524
▁wide	-9.8458
▁protagonist	-9.84583
▁successful	-9.84586
▁teacher	-9.84587
▁AND	-9.84609
▁enjoyable	-9.84623
ING	-9.84647
▁Very	-9.84679
ina	-9.84715
▁clichéd	-9.84734
▁singing	-9.84764
▁expectations	-9.8483
▁folks	-9.84918
▁oh	-9.85046
j	-9.85078
▁likely	-9.85176
▁dream	-9.85176
▁William	-9.85273
▁effect	-9.85308
▁El	-9.8535
▁rape	-9.85487
▁bothered	-9.85605
ice	-9.85621
▁nu	-9.85711
▁note	-9.85898
▁pe	-9.85915
▁sp	-9.85978
▁images	-9.86066
▁adventure	-9.86179
▁se	-9.86334
ka	-9.86449
▁elements	-9.8651
ecause	-9.86553
▁Du	-9.86753
▁names	-9.86897
▁wondering	-9.86909
▁support	-9.87149
▁grow	-9.87225
▁destroy	-9.87247
▁wear	-9.87344
▁quick	-9.87388
▁recent	-9.87409
port	-9.87412
ile	-9.87442
▁describe	-9.87503
▁normal	-9.87546
AR	-9.876
All	-9.87692
▁consist	-9.87754
▁suicide	-9.87768
▁depth	-9.87769
▁awesome	-9.87769
▁angry	-9.8777
▁common	-9.8777
▁unrealistic	-9.87779
▁appearance	-9.87787
▁Show	-9.87815
▁city	-9.87847
▁Chuck	-9.87906
▁scenery	-9.8799
▁motion	-9.87991
▁ability	-9.88038
▁Avoid	-9.8807
▁Where	-9.88184
all	-9.88194
▁outside	-9.88243
▁wearing	-9.88397
ca	-9.88414
▁followed	-9.88488
▁victim	-9.88551
▁detail	-9.88581
▁student	-9.88582
vo	-9.88722
▁explained	-9.8882
▁teen	-9.8891
▁casting	-9.88937
▁shooting	-9.89034
rate	-9.89141
▁100	-9.89401
OR	-9.89424
▁terms	-9.89547
star	-9.89554
▁Har	-9.8956
▁Mrs	-9.89577
▁factor	-9.89848
▁en	-9.89912
ned	-9.8999
▁laughed	-9.90051
▁seconds	-9.90065
▁begins	-9.90162
back	-9.90407
mon	-9.90456
▁fool	-9.90669
ron	-9.9067
▁bo	-9.90748
▁red	-9.90919
▁success	-9.91057
ew	-9.91099
▁Hitchcock	-9.91217
▁convince	-9.91217
▁length	-9.91217
▁doctor	-9.91217
▁Italian	-9.91217
▁giant	-9.91218
▁college	-9.91219
▁humour	-9.91219
▁serve	-9.91219
▁mystery	-9.9122
▁brilliant	-9.9122
▁lady	-9.91225
▁paid	-9.91228
▁reaction	-9.91258
▁Russian	-9.91261
▁bland	-9.913
▁House	-9.91324
▁Sp	-9.91348
▁People	-9.91352
▁8	-9.91416
▁Night	-9.91441
▁drive	-9.9159
▁grade	-9.9161
▁Mc	-9.91637
▁Li	-9.91802
▁Overall	-9.91923
uck	-9.92026
▁soul	-9.92048
▁features	-9.9205
▁standard	-9.92287
▁died	-9.92393
▁Wars	-9.92496
lie	-9.92609
▁talented	-9.92996
▁per	-9.93089
▁accident	-9.93486
▁Black	-9.93744
▁Ga	-9.93774
▁gr	-9.93953
00	-9.93989
Some	-9.9399
ize	-9.94064
OO	-9.94113
ft	-9.94151
▁Po	-9.94168
don	-9.9422
ans	-9.94272
tion	-9.94281
▁7	-9.94435
▁Chris	-9.94453
▁po	-9.94561
▁bore	-9.94635
▁author	-9.94788
▁fantasy	-9.94788
▁horribly	-9.94788
▁language	-9.94788
▁influence	-9.94788
▁presence	-9.94788
▁superior	-9.94788
▁nature	-9.9479
▁ugly	-9.94791
▁twice	-9.94792
▁information	-9.94795
▁dying	-9.94797
▁plent	-9.94806
▁memorable	-9.94835
▁truth	-9.94835
▁hotel	-9.94838
▁12	-9.94838
▁depressing	-9.94846
▁pri	-9.94872
hood	-9.94878
▁Jane	-9.9489
▁Thomas	-9.94897
▁stereotypical	-9.94903
▁deserves	-9.94993
▁belong	-9.95009
▁questions	-9.95083
▁greatest	-9.95105
ions	-9.95204
min	-9.95217
▁honestly	-9.95231
▁key	-9.95248
▁Will	-9.95259
▁inept	-9.95333
▁former	-9.95347
ence	-9.95413
▁planet	-9.95453
▁lived	-9.95508
▁bloody	-9.9559
▁beat	-9.95619
rn	-9.95642
▁following	-9.95717
▁pain	-9.95859
▁agent	-9.95878
▁street	-9.95922
▁producer	-9.95937
LE	-9.96
▁changes	-9.96264
▁k	-9.96592
ric	-9.97269
▁suffer	-9.97308
▁OF	-9.97374
▁sa	-9.97395
▁students	-9.97594
istic	-9.97807
▁sub	-9.98279
▁important	-9.98282
▁draw	-9.98362
▁moral	-9.98468
▁soft	-9.98472
▁advice	-9.98492
▁century	-9.98492
▁negative	-9.98492
▁Earth	-9.98492
▁imagination	-9.98492
▁technical	-9.98492
▁church	-9.98492
▁desert	-9.98492
▁historical	-9.98493
▁York	-9.98493
▁visit	-9.98493
▁screw	-9.98502
▁plus	-9.98503
▁Shakespeare	-9.9851
▁effective	-9.98515
▁Sure	-9.98534
▁Out	-9.98543
▁yeah	-9.98573
▁situations	-9.98596
▁slightly	-9.98615
▁useless	-9.98617
▁social	-9.98623
com	-9.98637
▁phone	-9.98637
▁mom	-9.98678
▁driver	-9.98686
?).	-9.98735
▁disgusting	-9.9874
▁damn	-9.98743
▁ruined	-9.98804
▁introduced	-9.98834
▁Too	-9.98868
▁trap	-9.98884
▁jump	-9.98986
▁painfully	-9.99086
low	-9.99125
▁kick	-9.99233
▁managed	-9.99245
ince	-9.9931
ren	-9.9943
▁dollars	-9.99455
her	-9.99614
▁choice	-9.99638
.....	-9.99664
▁dies	-9.99958
▁older	-10.0001
▁adult	-10.0033
▁Se	-10.0042
▁Ba	-10.0051
ittle	-10.0064
▁bed	-10.0066
gging	-10.0086
▁fashion	-10.0086
▁lacking	-10.0125
▁standards	-10.013
▁Le	-10.0132
ok	-10.0137
▁details	-10.0141
▁em	-10.0143
▁mental	-10.0146
down	-10.0151
▁Fred	-10.019
▁drugs	-10.0193
guy	-10.0195
▁pop	-10.0209
nch	-10.0223
▁Temple	-10.0234
▁account	-10.0234
▁embarrassing	-10.0234
▁explanation	-10.0234
▁miserably	-10.0234
▁opportunity	-10.0234
▁society	-10.0234
▁virtual	-10.0234
▁clothes	-10.0234
▁MST	-10.0234
▁answer	-10.0234
▁rescue	-10.0234
▁join	-10.0234
▁narrative	-10.0234
▁window	-10.0234
▁continuity	-10.0235
▁amateurish	-10.0235
▁pair	-10.0236
▁grand	-10.0238
▁Texas	-10.0239
▁1980	-10.0241
▁Horror	-10.0242
▁difference	-10.0242
▁US	-10.0246
▁gold	-10.0248
▁mindless	-10.0248
▁road	-10.0251
▁mark	-10.0255
ire	-10.0258
▁Still	-10.0261
▁Was	-10.0262
ual	-10.029
Ma	-10.0292
▁ill	-10.0292
▁Other	-10.0293
▁Pe	-10.0316
▁mine	-10.0318
▁emotion	-10.036
▁wall	-10.0364
▁places	-10.0371
▁40	-10.0372
▁slowly	-10.0376
ix	-10.0379
▁fights	-10.0384
▁Com	-10.0394
umb	-10.0398
▁Ben	-10.0403
▁step	-10.0408
ug	-10.0421
▁See	-10.0428
▁happening	-10.0429
▁St	-10.0434
▁reviewers	-10.0439
ex	-10.0451
▁rap	-10.0462
▁10.	-10.0469
ign	-10.0472
▁Harris	-10.0474
▁vi	-10.0491
▁helped	-10.0514
▁Jo	-10.0515
▁bear	-10.0516
▁rep	-10.053
▁mainly	-10.0531
That	-10.055
▁bomb	-10.0564
▁Qui	-10.0567
▁clean	-10.0569
▁prison	-10.0578
Desp	-10.0587
looking	-10.0593
tter	-10.0595
Not	-10.0595
▁logic	-10.0625
▁fiction	-10.0626
mber	-10.0628
▁absurd	-10.0631
▁climax	-10.0634
▁energy	-10.0634
▁offensive	-10.0634
▁receive	-10.0634
▁search	-10.0634
▁target	-10.0634
▁turkey	-10.0634
▁vehicle	-10.0634
▁process	-10.0634
▁smoke	-10.0634
▁affair	-10.0634
▁innocent	-10.0634
▁semi	-10.0634
▁nasty	-10.0634
▁skip	-10.0634
▁junk	-10.0634
▁opposite	-10.0634
▁latter	-10.0634
▁Wayne	-10.0635
▁round	-10.0635
▁collection	-10.0635
▁market	-10.0635
▁apartment	-10.0636
▁cash	-10.0636
▁color	-10.0638
▁heavy	-10.0638
▁lacks	-10.0639
▁Charlie	-10.0639
▁fat	-10.0639
▁cold	-10.064
▁Jerry	-10.0643
▁trailer	-10.0646
▁Everything	-10.0646
▁test	-10.0647
▁capture	-10.0653
▁officer	-10.0656
▁gory	-10.0664
▁sucked	-10.0681
▁rental	-10.0686
▁Boy	-10.0692
▁changed	-10.0692
▁X	-10.0705
fully	-10.0716
tur	-10.0726
▁assume	-10.0755
▁Ka	-10.0774
▁site	-10.0779
▁II	-10.0783
▁element	-10.0787
▁issue	-10.079
▁lighting	-10.0794
▁Are	-10.0798
▁experiment	-10.0801
▁Hu	-10.0802
▁60	-10.0807
▁Far	-10.0811
qu	-10.0815
▁sl	-10.0817
▁Sci	-10.0833
▁le	-10.0835
▁costs	-10.0849
ank	-10.0881
▁Cas	-10.0888
▁ring	-10.0916
▁tape	-10.0926
▁Y	-10.0929
▁Ne	-10.0934
dom	-10.0942
▁shock	-10.096
+	-10.0962
`	-10.0965
Overall	-10.0966
screen	-10.0967
▁IS	-10.0979
▁fe	-10.0983
hose	-10.099
▁charm	-10.0994
▁listen	-10.1011
year	-10.1013
und	-10.1017
▁Any	-10.1034
▁Th	-10.1038
▁Pa	-10.1039
▁office	-10.1039
▁Christmas	-10.105
▁Mencia	-10.105
▁accurate	-10.105
▁category	-10.105
▁chemistry	-10.105
▁lesbian	-10.105
▁terribly	-10.105
▁device	-10.105
▁knock	-10.1051
▁criminal	-10.1051
▁government	-10.1051
▁Mummy	-10.1051
▁Karen	-10.1052
▁attractive	-10.1052
▁professional	-10.1052
▁theatre	-10.1053
▁4.	-10.1053
▁enter	-10.1054
▁station	-10.1055
▁uninteresting	-10.1055
▁majority	-10.1055
▁fell	-10.1056
▁genius	-10.1056
▁everybody	-10.1057
▁glad	-10.1059
▁Matt	-10.106
▁Steph	-10.106
▁blue	-10.1064
▁dec	-10.1064
ens	-10.1075
▁model	-10.1076
▁repeated	-10.1081
▁anybody	-10.1085
▁Director	-10.1085
▁v	-10.1091
▁below	-10.1097
▁realized	-10.11
▁May	-10.1102
▁Na	-10.111
▁field	-10.1111
▁More	-10.1112
▁race	-10.112
▁Only	-10.1157
▁saved	-10.1182
ill	-10.1185
▁decade	-10.1214
▁claim	-10.1214
▁sexy	-10.1218
▁aspect	-10.122
▁Am	-10.1224
▁?	-10.1226
art	-10.1235
▁ride	-10.1274
ES	-10.1285
▁Vi	-10.1291
▁flicks	-10.1297
▁bits	-10.1305
!!!!	-10.132
bout	-10.1337
let	-10.1353
**	-10.1356
▁bi	-10.1364
▁11	-10.1366
▁j	-10.1388
&	-10.1402
▁heck	-10.1403
▁Americans	-10.1403
▁sun	-10.1404
she	-10.142
▁scream	-10.1422
▁center	-10.1431
ise	-10.1444
▁Z	-10.1444
LY	-10.1458
ue	-10.1459
▁Space	-10.1471
▁addition	-10.1473
▁finding	-10.1473
▁19	-10.1475
▁survive	-10.1477
▁drop	-10.1483
▁dancing	-10.1485
▁embarrassed	-10.1485
▁intelligence	-10.1485
▁intriguing	-10.1485
▁marriage	-10.1485
▁flesh	-10.1485
▁attitude	-10.1485
▁responsible	-10.1485
▁instance	-10.1485
▁jungle	-10.1485
▁shallow	-10.1486
▁mood	-10.1486
▁Lewis	-10.1486
▁curious	-10.1486
▁jail	-10.1486
▁trust	-10.1486
▁began	-10.1487
▁six	-10.1487
▁fix	-10.1487
▁statement	-10.1488
▁Jew	-10.1488
▁photography	-10.1489
▁Bill	-10.149
▁Mexican	-10.1491
▁atrocious	-10.1491
▁Japanese	-10.1491
▁pile	-10.1492
▁smile	-10.1493
part	-10.1493
▁sell	-10.1495
▁intelligent	-10.1495
▁romance	-10.1495
▁Ryan	-10.1495
▁Kevin	-10.1499
▁Blood	-10.1499
▁tree	-10.1499
▁Bar	-10.1499
▁Miss	-10.1501
▁Park	-10.1503
▁cable	-10.1505
gen	-10.1513
ery	-10.1518
▁soap	-10.1526
▁era	-10.1534
▁sent	-10.1538
▁Che	-10.1545
▁struggle	-10.1549
▁Un	-10.155
▁Per	-10.1556
▁****	-10.156
▁cares	-10.1569
▁South	-10.1579
there	-10.1583
ack	-10.1583
▁building	-10.1587
▁sea	-10.1593
▁directors	-10.1605
▁suck	-10.1612
ski	-10.1621
▁reach	-10.1628
▁months	-10.1635
▁walking	-10.1657
pt	-10.1663
▁location	-10.1673
***	-10.1674
▁constant	-10.1679
▁occur	-10.1691
▁arm	-10.1696
▁str	-10.1698
Fi	-10.1707
my	-10.1715
▁brothers	-10.1715
▁Da	-10.1719
▁teenagers	-10.1722
sk	-10.1732
▁sole	-10.1734
een	-10.1747
imp	-10.1783
▁:	-10.1787
ett	-10.1798
▁li	-10.1817
First	-10.1856
spi	-10.1865
Oh	-10.188
▁Lot	-10.1885
▁magic	-10.1887
▁mu	-10.1898
▁produce	-10.1904
▁cry	-10.1923
real	-10.1928
▁stretch	-10.1935
▁drunk	-10.1935
▁crash	-10.1935
▁THAT	-10.194
▁industry	-10.194
▁motivation	-10.194
▁recognize	-10.194
▁substance	-10.194
▁vampire	-10.194
▁push	-10.194
▁succeed	-10.194
▁BAD	-10.194
▁eventually	-10.194
▁horse	-10.194
▁goofy	-10.194
▁pacing	-10.194
▁text	-10.194
▁contrived	-10.194
▁speed	-10.194
▁Otherwise	-10.194
▁therefore	-10.194
▁shark	-10.194
▁switch	-10.194
▁detective	-10.194
▁grace	-10.194
▁4/10	-10.194
▁culture	-10.1941
▁grave	-10.1941
▁wound	-10.1941
HIS	-10.1941
▁Harry	-10.1942
▁structure	-10.1942
▁idiotic	-10.1942
▁personality	-10.1943
▁Noah	-10.1945
▁belief	-10.1946
▁tight	-10.195
▁partner	-10.1951
▁mob	-10.1951
▁charge	-10.1952
▁African	-10.1952
▁spoof	-10.1954
▁powerful	-10.1954
▁metal	-10.1957
▁featur	-10.1957
▁table	-10.1964
▁Mark	-10.1967
▁plane	-10.1969
▁born	-10.1974
▁forgotten	-10.1977
▁boss	-10.1981
▁lay	-10.1981
▁End	-10.1983
▁meaning	-10.1985
▁opens	-10.1985
▁noticed	-10.1988
▁knowing	-10.1998
He	-10.2002
▁twists	-10.2007
▁shocking	-10.2009
▁Green	-10.201
▁range	-10.2014
▁woods	-10.2022
too	-10.2024
%	-10.2027
▁missed	-10.2032
▁developed	-10.2041
▁drag	-10.2064
▁Car	-10.2066
ave	-10.209
▁load	-10.2092
▁award	-10.2103
ound	-10.2106
▁ahead	-10.2111
▁pa	-10.2118
▁bl	-10.2129
▁continue	-10.2132
▁0	-10.215
▁Great	-10.2168
▁du	-10.2169
▁Chan	-10.2189
cent	-10.2193
▁Mor	-10.2195
cy	-10.2197
▁ready	-10.2203
▁animal	-10.2204
▁aspects	-10.2225
VERY	-10.2236
▁vs	-10.224
▁emotions	-10.2251
▁Mel	-10.2271
▁perform	-10.2283
get	-10.2295
alent	-10.2311
EN	-10.2318
▁program	-10.2323
X	-10.2327
Z	-10.233
American	-10.2332
Why	-10.2332
Now	-10.2341
ED	-10.2348
ja	-10.2364
▁brief	-10.2376
hu	-10.2377
▁apparent	-10.2378
▁inter	-10.2379
▁luck	-10.239
▁date	-10.2396
▁weeks	-10.2406
▁amateur	-10.2414
▁chick	-10.2414
▁breath	-10.2415
▁regard	-10.2415
▁1970	-10.2416
▁excited	-10.2416
▁hospital	-10.2416
▁supernatural	-10.2416
▁teeth	-10.2416
▁thousand	-10.2416
▁wreck	-10.2416
▁floor	-10.2416
▁speech	-10.2416
▁naked	-10.2416
▁miscast	-10.2416
▁native	-10.2417
▁bullet	-10.2417
▁Paris	-10.2417
▁knowledge	-10.2418
▁Trek	-10.2418
▁product	-10.2418
▁cell	-10.2418
▁funnie	-10.242
▁highlight	-10.242
▁tear	-10.2422
▁Seriously	-10.2422
▁religious	-10.2422
▁Larry	-10.2422
▁13	-10.2424
▁choose	-10.2425
▁masterpiece	-10.2427
▁section	-10.2427
▁demand	-10.2427
▁Western	-10.2427
▁Moon	-10.2427
▁Steve	-10.2429
▁White	-10.2429
▁Asian	-10.243
▁disturbing	-10.243
RE	-10.2434
▁Story	-10.2439
ath	-10.2441
La	-10.2447
▁described	-10.2454
▁rank	-10.2455
zo	-10.2455
▁display	-10.2456
▁cameo	-10.2461
▁law	-10.247
▁lock	-10.2479
▁destroyed	-10.2491
cap	-10.2497
▁board	-10.2499
ax	-10.2512
existent	-10.2514
▁filled	-10.2514
▁Hard	-10.2518
uh	-10.2523
▁lower	-10.2524
▁na	-10.254
▁learned	-10.2545
▁appeared	-10.2554
used	-10.2557
▁falling	-10.256
ties	-10.2568
▁rated	-10.2569
oh	-10.2572
▁Ja	-10.2574
rk	-10.2578
▁deals	-10.2582
▁IN	-10.2589
▁correct	-10.2631
nd	-10.2641
▁term	-10.2656
▁Christian	-10.2664
▁teenager	-10.2665
lly	-10.2674
▁cost	-10.2687
▁animals	-10.2688
▁murders	-10.2701
▁opera	-10.2711
▁issues	-10.2729
▁inf	-10.2747
▁area	-10.2753
▁agents	-10.2769
▁paint	-10.2775
!).	-10.2783
▁member	-10.2786
cut	-10.2798
ute	-10.28
board	-10.2831
▁nose	-10.2833
However	-10.2833
plot	-10.2835
How	-10.2835
director	-10.2835
Well	-10.2839
▁TO	-10.2848
▁spit	-10.286
read	-10.2883
▁cliche	-10.2888
int	-10.2897
▁hook	-10.2902
▁punch	-10.2912
▁associat	-10.2916
▁curiosity	-10.2916
▁hundred	-10.2916
▁ludicrous	-10.2916
▁research	-10.2916
▁twenty	-10.2916
▁Girl	-10.2916
▁beauty	-10.2916
▁unique	-10.2916
▁zero	-10.2916
▁racist	-10.2916
▁community	-10.2916
▁Moore	-10.2916
▁1960	-10.2916
▁expert	-10.2916
▁reference	-10.2916
▁ashamed	-10.2916
▁advise	-10.2916
▁comedies	-10.2916
▁hide	-10.2916
▁prefer	-10.2917
▁football	-10.2917
▁dangerous	-10.2917
▁robot	-10.2917
▁hint	-10.2917
▁edge	-10.2919
▁attract	-10.2919
▁boredom	-10.2919
▁sitcom	-10.2919
▁VH	-10.2919
▁Roger	-10.2919
▁psychological	-10.2919
▁Martin	-10.2919
▁minor	-10.2919
▁Fox	-10.292
▁seemingly	-10.292
▁gig	-10.292
▁uninspired	-10.292
▁commentary	-10.292
▁invest	-10.292
▁London	-10.2923
▁Charle	-10.2923
▁Linda	-10.2926
▁anywhere	-10.2927
▁protect	-10.2927
▁appalling	-10.2927
▁heroine	-10.2929
▁Party	-10.2932
▁hype	-10.2942
▁mid	-10.2944
▁Poor	-10.2951
▁Does	-10.2955
du	-10.2957
▁Bob	-10.2958
▁dressed	-10.2966
see	-10.2972
▁recently	-10.2975
▁Add	-10.2978
▁shocked	-10.298
▁figured	-10.299
ator	-10.2992
▁host	-10.2996
rash	-10.2997
▁Cha	-10.3004
▁prisoner	-10.3004
▁hey	-10.3005
▁carrie	-10.3019
▁moved	-10.3028
▁Mi	-10.3033
▁twisted	-10.3034
▁thinks	-10.3057
▁picked	-10.3067
▁sadly	-10.3077
row	-10.3086
▁3.	-10.3088
▁button	-10.3102
▁faces	-10.3114
▁Love	-10.3122
▁led	-10.3124
▁web	-10.3131
▁slu	-10.3138
▁caus	-10.316
▁ghost	-10.3173
▁image	-10.3179
ress	-10.3179
par	-10.3182
constantly	-10.3212
qui	-10.3223
▁reviewer	-10.3229
▁cuts	-10.323
till	-10.325
Do	-10.3259
▁efforts	-10.3297
▁player	-10.3298
they	-10.3309
▁teens	-10.3317
where	-10.3331
ura	-10.3332
▁Williams	-10.3335
▁roll	-10.3353
just	-10.3358
mal	-10.3369
é	-10.3377
loved	-10.3379
▁hang	-10.3382
▁treat	-10.3388
fest	-10.3389
▁sum	-10.3411
▁refuse	-10.3414
OW	-10.3419
▁Kill	-10.342
▁dress	-10.3423
▁understanding	-10.3425
▁clue	-10.344
▁Channel	-10.3442
▁Franco	-10.3442
▁Holmes	-10.3442
▁encounter	-10.3442
▁evidence	-10.3442
▁excitement	-10.3442
▁exercise	-10.3442
▁fantastic	-10.3442
▁genuine	-10.3442
▁regular	-10.3442
▁sleazy	-10.3442
▁technique	-10.3442
▁Could	-10.3442
▁frankly	-10.3442
▁memory	-10.3442
▁jerk	-10.3442
▁charisma	-10.3442
▁asleep	-10.3442
▁blind	-10.3442
▁foreign	-10.3442
▁Clark	-10.3443
▁Tingle	-10.3443
▁lift	-10.3443
▁existence	-10.3443
▁unoriginal	-10.3443
▁mask	-10.3444
▁sword	-10.3444
▁imitation	-10.3444
▁exploitation	-10.3444
▁loud	-10.3444
▁epic	-10.3446
▁thus	-10.3446
ivate	-10.3446
▁seven	-10.3446
▁movement	-10.3449
▁conflict	-10.3449
erior	-10.345
py	-10.3451
▁mildly	-10.3454
▁mysterious	-10.3454
▁Randy	-10.3454
▁Blair	-10.3455
▁artist	-10.3458
▁Milo	-10.3461
▁Okay	-10.3463
▁screenwriter	-10.3465
▁required	-10.3466
▁originality	-10.3472
▁Get	-10.3473
▁Really	-10.3474
▁recall	-10.3476
▁foot	-10.348
▁sight	-10.3482
▁Give	-10.3483
acting	-10.3488
▁Carol	-10.3494
▁occasional	-10.3497
▁performed	-10.3501
▁endless	-10.3505
▁accents	-10.3505
▁loosely	-10.3509
▁included	-10.3515
▁lu	-10.3533
nny	-10.3551
▁`	-10.3552
set	-10.356
▁meeting	-10.3564
▁weapons	-10.3582
▁flaws	-10.3582
We	-10.3585
lock	-10.3588
▁forever	-10.3598
▁di	-10.3615
▁fail	-10.3623
▁fly	-10.3629
▁yell	-10.3632
ming	-10.3634
aving	-10.3639
▁Gus	-10.3644
▁NO	-10.3661
▁themes	-10.3702
▁types	-10.3703
▁scare	-10.3706
▁numbers	-10.3711
head	-10.3717
▁portrayal	-10.3746
▁drags	-10.375
ass	-10.3771
ative	-10.3778
ization	-10.3783
jo	-10.3789
▁severe	-10.3819
▁Sea	-10.3823
▁Red	-10.3834
▁tone	-10.3855
ically	-10.3872
iness	-10.3883
▁bag	-10.3891
core	-10.3908
Anyway	-10.3913
special	-10.3914
from	-10.3915
town	-10.3915
Even	-10.3916
▁burn	-10.392
▁matters	-10.3921
worthy	-10.3922
▁corn	-10.3925
how	-10.3936
ony	-10.3937
▁report	-10.3937
▁creatures	-10.3942
▁Whi	-10.3948
▁relate	-10.3973
Then	-10.3975
▁exploit	-10.3995
▁Beethoven	-10.3998
▁Cameron	-10.3998
▁High	-10.3998
▁Honestly	-10.3998
▁comparison	-10.3998
▁heavi	-10.3998
▁likable	-10.3998
▁necessary	-10.3998
▁revenge	-10.3998
▁stomach	-10.3998
▁stumble	-10.3998
▁crowd	-10.3998
▁patient	-10.3998
▁promising	-10.3998
▁possessed	-10.3998
▁Terry	-10.3998
▁parody	-10.3998
▁root	-10.3998
▁court	-10.3998
,000	-10.3998
▁prostitute	-10.3998
▁sentence	-10.3998
▁devil	-10.3999
▁Edward	-10.3999
▁aware	-10.3999
▁worthwhile	-10.4
▁Rome	-10.4
▁propaganda	-10.4001
▁Never	-10.4002
▁tend	-10.4002
ki	-10.4003
▁page	-10.4004
▁obsessed	-10.4005
▁handful	-10.4006
▁summer	-10.4008
▁laughter	-10.4009
▁retarded	-10.401
▁Zombie	-10.4015
▁village	-10.4017
▁Awful	-10.402
▁drawn	-10.4021
▁achieve	-10.4023
▁raise	-10.4023
▁corny	-10.4025
▁Welles	-10.4043
▁heroes	-10.4044
▁Ri	-10.4049
▁loser	-10.4051
An	-10.4057
▁Island	-10.4059
▁deserved	-10.406
▁normally	-10.4064
aged	-10.4069
med	-10.4073
ike	-10.4073
▁Mary	-10.4078
▁Brad	-10.4088
ward	-10.4088
▁exp	-10.4108
▁costume	-10.4108
▁perfectly	-10.4117
national	-10.413
▁featured	-10.4134
▁delivered	-10.4138
▁speaking	-10.4139
▁heist	-10.4139
▁Gar	-10.4143
▁powers	-10.4143
▁Time	-10.4146
▁Sha	-10.415
▁BE	-10.4157
ette	-10.4166
▁flashbacks	-10.4177
iti	-10.4192
▁da	-10.4202
▁asked	-10.4206
▁op	-10.4213
ze	-10.4229
▁Di	-10.4231
▁fla	-10.4235
eep	-10.4237
ov	-10.4241
play	-10.4246
▁king	-10.4274
▁theaters	-10.4284
▁ti	-10.4301
▁guns	-10.4306
▁idiot	-10.4313
▁trick	-10.4319
van	-10.4332
▁filmmaker	-10.4343
▁stopp	-10.4357
▁Pre	-10.4381
▁DO	-10.4387
▁adults	-10.4395
▁overly	-10.4409
▁aim	-10.441
6	-10.4413
TE	-10.4422
▁stands	-10.4425
▁fa	-10.4429
▁sn	-10.4431
look	-10.4434
No	-10.4453
utter	-10.4458
called	-10.4465
▁Ex	-10.4489
▁mistakes	-10.449
war	-10.4501
field	-10.4501
After	-10.4502
▁angle	-10.4502
With	-10.4502
point	-10.4504
ought	-10.451
nce	-10.4512
▁spoil	-10.4516
▁Ms	-10.452
▁Sta	-10.4521
▁pretend	-10.4522
▁min	-10.4525
▁remains	-10.4528
▁Gene	-10.4529
Bo	-10.453
▁returns	-10.4531
Be	-10.4534
▁rid	-10.4549
▁involve	-10.4558
▁require	-10.4559
▁dislike	-10.4563
▁base	-10.4565
▁Frank	-10.4572
▁represent	-10.4584
▁Joseph	-10.4586
▁Nicole	-10.4586
▁Spanish	-10.4586
▁afraid	-10.4586
▁cheese	-10.4586
▁decision	-10.4586
▁journey	-10.4586
▁tragic	-10.4586
▁unconvincing	-10.4586
▁vague	-10.4586
▁Brown	-10.4586
▁Cobb	-10.4586
▁animated	-10.4586
▁separate	-10.4586
▁Azte	-10.4586
▁Satan	-10.4586
▁disguis	-10.4586
▁serial	-10.4586
▁smell	-10.4586
▁Altman	-10.4586
▁source	-10.4586
▁pilot	-10.4586
▁celluloid	-10.4586
▁attend	-10.4587
▁harsh	-10.4587
▁Patty	-10.4587
▁unusual	-10.4587
▁clip	-10.4587
▁Corman	-10.4588
▁rise	-10.4588
▁dump	-10.4588
▁scale	-10.4589
▁18	-10.4591
▁Mike	-10.4591
▁Wow	-10.4593
▁creator	-10.4593
▁Howard	-10.4595
▁Gold	-10.4596
▁Sarah	-10.4596
▁double	-10.4599
▁dirty	-10.46
▁crack	-10.46
▁Apparently	-10.4604
▁ALL	-10.4604
▁Thank	-10.4606
▁Hitch	-10.4607
▁Big	-10.4608
lec	-10.4609
▁Sorry	-10.461
▁worthless	-10.4611
▁frame	-10.4612
▁Yeah	-10.4615
▁actresses	-10.4619
▁cult	-10.4619
▁Glen	-10.4619
▁sy	-10.4624
ons	-10.4626
▁#	-10.4629
▁Law	-10.463
▁Bu	-10.4631
▁follows	-10.4633
▁sink	-10.4634
▁Second	-10.4636
name	-10.4636
▁Look	-10.4637
▁spoiled	-10.4639
▁treated	-10.4645
▁press	-10.4648
▁warning	-10.465
▁incredible	-10.4656
▁failing	-10.4656
▁scared	-10.4669
▁lesson	-10.4672
▁screaming	-10.4673
.......	-10.4678
▁comical	-10.4688
▁pen	-10.4688
▁Jud	-10.4705
▁provid	-10.4706
▁stereotype	-10.4706
▁loss	-10.4711
▁buying	-10.4735
most	-10.4773
▁skills	-10.4776
▁murdered	-10.4779
▁Iron	-10.4782
▁hearing	-10.4792
▁aside	-10.4793
▁EVER	-10.4814
▁commit	-10.4823
▁owner	-10.4839
▁leader	-10.4839
▁Tra	-10.4856
rab	-10.486
▁dra	-10.486
ek	-10.4867
▁ya	-10.4871
mer	-10.4881
▁ruin	-10.489
movies	-10.4892
cast	-10.4908
▁25	-10.4928
SH	-10.4929
▁recommended	-10.4934
▁guard	-10.4937
yn	-10.4946
ff	-10.4952
idden	-10.4954
▁pi	-10.4967
err	-10.4998
▁actions	-10.5008
ists	-10.5024
▁Top	-10.5028
losing	-10.5032
bar	-10.5049
Car	-10.5058
▁victims	-10.5064
▁sta	-10.5069
▁creat	-10.5078
▁Liv	-10.5079
▁Stan	-10.5098
▁forces	-10.5103
Co	-10.5108
▁starting	-10.5109
▁bus	-10.511
SPOILER	-10.5118
yes	-10.5123
ock	-10.5126
especially	-10.5128
life	-10.5128
awful	-10.5132
although	-10.5143
Let	-10.5143
▁committ	-10.5145
Bad	-10.5155
made	-10.5163
▁Los	-10.5164
She	-10.5165
▁warn	-10.5169
▁surprising	-10.5172
▁proper	-10.5172
gra	-10.5174
▁exact	-10.5176
▁skin	-10.5178
▁monsters	-10.518
▁mode	-10.518
▁desire	-10.5183
▁creep	-10.5185
▁blond	-10.5191
▁unbelievabl	-10.5191
▁whil	-10.5193
▁Final	-10.5196
▁flash	-10.5206
▁witch	-10.5206
▁express	-10.5208
▁rob	-10.5211
▁system	-10.5211
▁Children	-10.5211
▁Chinese	-10.5211
▁Debbie	-10.5211
▁Jessica	-10.5211
▁blatant	-10.5211
▁cannibal	-10.5211
▁executed	-10.5211
▁gratuitous	-10.5211
▁guitar	-10.5211
▁numerous	-10.5211
▁professor	-10.5211
▁regret	-10.5211
▁routine	-10.5211
▁crawl	-10.5211
▁false	-10.5211
martial	-10.5211
▁Dawn	-10.5211
▁extent	-10.5211
▁prepared	-10.5211
▁ST	-10.5211
▁Phillip	-10.5211
▁brutal	-10.5211
▁dragged	-10.5211
▁confusion	-10.5211
▁Plus	-10.5211
▁Talk	-10.5211
▁shadow	-10.5211
▁service	-10.5211
▁ticket	-10.5212
▁blank	-10.5212
▁devoid	-10.5212
▁available	-10.5212
▁Lord	-10.5212
▁condition	-10.5212
▁1/10	-10.5212
▁Lynch	-10.5212
▁bodies	-10.5212
▁mile	-10.5213
Next	-10.5213
▁treatment	-10.5213
▁Pepe	-10.5213
▁feet	-10.5213
▁Eddie	-10.5213
▁meaningless	-10.5215
▁prime	-10.5215
▁creation	-10.5215
▁coach	-10.5216
▁married	-10.5216
▁share	-10.5216
▁inspired	-10.5217
▁chain	-10.5217
▁stunning	-10.5217
ordinary	-10.5218
▁Angeles	-10.5219
▁adopt	-10.5219
▁Baldwin	-10.522
▁Jesus	-10.522
▁mission	-10.5221
▁Though	-10.5223
▁preach	-10.5224
▁Actually	-10.5225
▁Acting	-10.5227
▁passion	-10.5228
▁priest	-10.523
▁club	-10.5231
▁23	-10.5231
▁impressed	-10.5233
▁Angel	-10.5234
gun	-10.5236
▁Christophe	-10.5236
gotten	-10.524
retty	-10.5244
▁stupidity	-10.5247
▁Irish	-10.5248
▁Hardy	-10.5248
▁unintentionally	-10.5251
▁earn	-10.5251
▁revealed	-10.5254
▁Gary	-10.5255
▁Once	-10.526
hol	-10.526
▁singer	-10.5263
▁Killer	-10.5269
▁grown	-10.5276
▁outline	-10.5284
▁crying	-10.5299
▁Best	-10.5305
▁sing	-10.5305
▁Nazis	-10.5308
▁brains	-10.5316
urse	-10.5318
rd	-10.5319
val	-10.5336
▁qua	-10.5339
▁entr	-10.5348
▁opened	-10.5354
▁Uni	-10.5365
▁finale	-10.537
▁Hell	-10.537
▁critics	-10.538
ak	-10.5404
▁lies	-10.5411
▁ball	-10.5432
▁Ko	-10.5435
▁Hav	-10.5445
50	-10.5451
▁interviews	-10.5451
liners	-10.5464
▁pan	-10.5475
eon	-10.5476
▁Patric	-10.5486
▁lovers	-10.5491
▁covered	-10.5492
unk	-10.5504
▁costumes	-10.5512
mic	-10.5533
▁dam	-10.5545
ker	-10.5552
▁pl	-10.5562
long	-10.5574
▁talents	-10.5574
▁Christin	-10.5585
anche	-10.5586
▁Sal	-10.5591
▁locations	-10.5594
▁Pol	-10.5595
▁asking	-10.5606
▁graphic	-10.5607
▁Ram	-10.5617
▁revolve	-10.5625
cid	-10.5636
ose	-10.5638
▁resemble	-10.5639
oc	-10.564
mar	-10.5643
▁staring	-10.5645
use	-10.5649
▁deaths	-10.5656
mate	-10.566
ole	-10.5692
▁wind	-10.5693
ky	-10.5695
▁feelings	-10.57
▁par	-10.5731
▁pet	-10.5736
▁im	-10.5739
▁willing	-10.5744
▁Win	-10.5745
obs	-10.5749
▁shop	-10.5753
▁ne	-10.5777
clear	-10.5789
▁lover	-10.579
Robert	-10.5794
written	-10.5794
maybe	-10.5794
why	-10.5795
story	-10.5804
▁flip	-10.5804
▁audiences	-10.5806
host	-10.581
tz	-10.5812
▁intention	-10.5816
▁accept	-10.5819
▁heads	-10.5827
▁visuals	-10.5832
▁physical	-10.5837
▁unintentional	-10.5839
▁Gree	-10.5842
TY	-10.5845
▁teach	-10.5846
▁topic	-10.5846
▁Luc	-10.5847
▁seat	-10.585
key	-10.5856
▁shak	-10.5858
ham	-10.587
▁distinct	-10.587
wit	-10.5871
▁complain	-10.5875
▁cruel	-10.5876
▁subtle	-10.5877
▁photo	-10.5878
▁Bronson	-10.5878
▁Evil	-10.5878
▁Mexico	-10.5878
▁ancient	-10.5878
▁confess	-10.5878
▁corpse	-10.5878
▁department	-10.5878
▁generic	-10.5878
▁horrendous	-10.5878
▁hysterical	-10.5878
▁mountain	-10.5878
▁precious	-10.5878
▁pregnant	-10.5878
▁silent	-10.5878
▁slapstick	-10.5878
▁inappropriate	-10.5878
▁miserable	-10.5878
▁slaughter	-10.5878
▁urban	-10.5878
▁captain	-10.5878
▁impact	-10.5878
▁trite	-10.5878
▁reputation	-10.5878
▁resort	-10.5878
▁Ranger	-10.5878
▁shirt	-10.5878
▁fresh	-10.5878
▁bucks	-10.5878
▁intense	-10.5878
▁driving	-10.5878
▁cheer	-10.5878
▁urge	-10.5878
▁secur	-10.5878
▁rushed	-10.5878
▁insight	-10.5878
▁solid	-10.5878
▁summary	-10.5878
▁network	-10.5878
▁Wilson	-10.5878
▁swear	-10.5878
hole	-10.5878
▁1950	-10.5879
▁Bobby	-10.5879
▁stuck	-10.5879
▁paper	-10.5879
▁fellow	-10.588
▁obscure	-10.588
▁shout	-10.5883
▁demon	-10.5883
▁Sometime	-10.5884
▁scarecrow	-10.5886
▁debut	-10.5887
▁Russell	-10.5887
▁essentially	-10.5887
▁brat	-10.5888
▁unlikeable	-10.5889
▁Germans	-10.589
▁bill	-10.5892
▁spare	-10.5895
▁stinker	-10.5897
▁Halloween	-10.5899
▁craft	-10.5899
▁Life	-10.5899
LD	-10.5901
▁position	-10.5902
▁Boll	-10.5903
▁Ann	-10.5905
▁fame	-10.5905
▁shape	-10.5906
▁**	-10.5906
▁Friday	-10.5911
▁Worst	-10.5911
▁dude	-10.5913
▁lucky	-10.5916
▁army	-10.5919
▁realise	-10.592
▁vision	-10.5923
▁Davis	-10.5923
▁pieces	-10.5929
▁drinking	-10.5937
ump	-10.594
▁Alien	-10.5953
▁Jean	-10.5962
▁sports	-10.5963
▁wise	-10.5983
gle	-10.5987
▁disc	-10.5987
▁GI	-10.599
▁handle	-10.5991
▁lovely	-10.5992
▁relative	-10.6003
run	-10.6007
▁higher	-10.6016
▁ha	-10.602
▁medi	-10.6024
▁gri	-10.6028
ural	-10.6028
▁unit	-10.6038
ani	-10.6043
ale	-10.6049
▁rules	-10.6057
▁Hall	-10.6078
▁Art	-10.609
▁gags	-10.6096
▁sin	-10.6113
than	-10.6118
cal	-10.6128
▁Dur	-10.6134
▁solve	-10.6144
Who	-10.6148
accidentally	-10.6152
house	-10.6154
▁ver	-10.6157
▁fi	-10.6164
▁cant	-10.6168
▁1.	-10.6191
ugh	-10.6201
▁Dog	-10.6222
played	-10.6234
▁/>(	-10.6244
DS	-10.6245
iff	-10.6245
af	-10.6247
come	-10.6254
▁Fan	-10.6268
▁Que	-10.627
▁players	-10.6271
Star	-10.6276
▁interview	-10.6279
▁worthy	-10.6283
▁Gr	-10.6287
▁mini	-10.6288
▁dig	-10.6292
▁SO	-10.6298
very	-10.6299
itch	-10.6301
▁news	-10.6307
▁calling	-10.6316
▁expression	-10.6323
efore	-10.6324
▁45	-10.6324
rip	-10.6331
more	-10.6337
▁onto	-10.6342
▁praise	-10.6352
▁freak	-10.6357
hard	-10.6358
▁pictures	-10.6361
ept	-10.6363
▁facts	-10.6364
LA	-10.637
are	-10.6384
iz	-10.6386
▁sw	-10.6395
ado	-10.6401
▁humans	-10.6404
▁drives	-10.6405
▁adds	-10.6406
opping	-10.6407
cial	-10.6423
uring	-10.6442
ara	-10.6445
vel	-10.6461
har	-10.6469
▁repeat	-10.6476
ese	-10.6481
▁Ru	-10.6484
▁command	-10.6495
ox	-10.6498
ified	-10.6498
wise	-10.65
wood	-10.6505
Watch	-10.6508
Although	-10.6508
Where	-10.6508
Please	-10.6508
Just	-10.6508
▁Joan	-10.6512
▁***	-10.6524
▁drink	-10.6529
▁arriv	-10.6532
▁Ron	-10.6532
▁natural	-10.6553
vic	-10.6554
▁HA	-10.6555
Un	-10.6555
▁flow	-10.6557
▁$	-10.6563
▁current	-10.6568
▁Australia	-10.6577
De	-10.6579
▁shut	-10.6581
▁Eric	-10.6584
kill	-10.6585
▁intent	-10.6588
▁complex	-10.6589
▁moron	-10.659
▁proceed	-10.659
▁affect	-10.6592
▁plastic	-10.6592
▁technology	-10.6592
Imagine	-10.6592
▁Dennis	-10.6592
▁MOVIE	-10.6592
▁WORST	-10.6592
▁Washington	-10.6592
▁Would	-10.6592
▁annoyed	-10.6592
▁behavior	-10.6592
▁chuckle	-10.6592
▁clown	-10.6592
▁coffee	-10.6592
▁conversation	-10.6592
▁credibility	-10.6592
▁disjointed	-10.6592
▁families	-10.6592
▁horrid	-10.6592
▁intrigue	-10.6592
▁relief	-10.6592
▁religion	-10.6592
▁theatrical	-10.6592
▁thief	-10.6592
▁unbearable	-10.6592
▁vacation	-10.6592
▁Especially	-10.6592
▁built	-10.6592
▁montage	-10.6592
▁practical	-10.6592
▁ultra	-10.6592
▁racism	-10.6592
▁safe	-10.6592
▁tongue	-10.6592
▁Kelly	-10.6592
▁guest	-10.6592
▁concert	-10.6592
▁convey	-10.6592
comprehensible	-10.6592
▁queen	-10.6592
▁France	-10.6592
▁monkey	-10.6592
▁minimal	-10.6592
▁crude	-10.6592
▁turd	-10.6592
▁multiple	-10.6593
UST	-10.6593
▁implausible	-10.6593
▁revelation	-10.6593
▁narration	-10.6593
▁Knight	-10.6593
▁Donald	-10.6593
▁Laura	-10.6593
▁outfit	-10.6593
▁unknown	-10.6594
▁reject	-10.6594
▁u	-10.6594
▁Witch	-10.6594
▁chair	-10.6594
▁imagery	-10.6594
▁creative	-10.6594
▁Devil	-10.6594
▁naive	-10.6595
▁gangster	-10.6595
▁Hill	-10.6595
▁Brian	-10.6596
▁European	-10.6596
▁thoroughly	-10.6596
▁besides	-10.6597
▁tune	-10.6597
▁racial	-10.6597
▁buff	-10.6598
▁depiction	-10.6598
▁presentation	-10.6598
▁artistic	-10.6599
▁instantly	-10.6599
▁gem	-10.66
▁significant	-10.6602
▁Canadian	-10.6602
▁Obviously	-10.6602
▁Snipes	-10.6602
▁wrestling	-10.6602
▁abandoned	-10.6602
▁nail	-10.6603
▁Heart	-10.6603
▁broken	-10.6604
▁Evan	-10.6605
▁pitch	-10.6607
▁Someone	-10.6607
▁cave	-10.6607
▁Wat	-10.6608
▁quote	-10.6608
aking	-10.6611
▁park	-10.6612
▁convenient	-10.6615
▁Dean	-10.6617
▁Guy	-10.6618
▁eight	-10.6619
▁Over	-10.6619
▁Queen	-10.6619
▁edited	-10.662
▁pity	-10.662
▁spin	-10.6621
▁Last	-10.6621
▁fade	-10.6624
▁Up	-10.6625
▁ants	-10.6627
▁latest	-10.6629
▁boom	-10.6634
▁fift	-10.6637
▁Allen	-10.6637
▁surprisingly	-10.6637
▁cooking	-10.6642
can	-10.6643
▁tripe	-10.6645
▁Boring	-10.6648
▁print	-10.665
▁campy	-10.667
▁bin	-10.6672
▁hanging	-10.668
▁feed	-10.668
▁Need	-10.6681
▁hu	-10.6689
pl	-10.6689
▁string	-10.6693
▁pig	-10.6693
▁listening	-10.6703
▁Brothers	-10.6704
▁related	-10.6708
▁Ber	-10.6713
▁starred	-10.6722
matic	-10.6724
▁Sco	-10.6729
By	-10.673
▁experienced	-10.6734
▁makeup	-10.6736
"?	-10.6739
▁Make	-10.6742
▁seek	-10.6742
▁appealing	-10.6746
▁delivers	-10.6758
hoot	-10.6773
take	-10.6799
▁snakes	-10.6806
▁sequels	-10.6807
Ed	-10.6816
▁Su	-10.6826
▁dealing	-10.6834
▁thanks	-10.6841
▁farm	-10.6842
▁Andy	-10.6849
fer	-10.6855
▁10,	-10.6858
dge	-10.6863
hop	-10.6867
▁beach	-10.6877
▁ham	-10.6881
▁popp	-10.6887
▁Ve	-10.6902
▁ruins	-10.6911
▁sorts	-10.6913
evil	-10.6926
▁fare	-10.6949
▁bat	-10.7015
▁Gu	-10.7021
▁disappear	-10.7021
▁continues	-10.7022
▁hack	-10.7026
▁stab	-10.7029
away	-10.7032
▁concern	-10.7033
▁remembered	-10.7034
▁Mad	-10.7043
eyed	-10.7056
eit	-10.7068
nyone	-10.7069
▁pal	-10.7069
▁continu	-10.7073
▁discuss	-10.7079
Unless	-10.7094
▁month	-10.7097
▁spoiler	-10.7111
TV	-10.7113
▁jumps	-10.7123
▁forest	-10.7123
▁ba	-10.7128
rage	-10.713
▁Min	-10.7143
▁introduc	-10.7178
▁Tre	-10.7187
OU	-10.7217
▁reasonabl	-10.7258
▁ca	-10.7269
related	-10.7275
while	-10.7275
grade	-10.7276
▁scar	-10.7277
John	-10.7278
Alien	-10.7279
▁attempting	-10.728
▁study	-10.7296
▁kiss	-10.7298
▁hunt	-10.73
▁amaz	-10.7306
▁reveal	-10.7309
VIL	-10.731
▁pack	-10.731
make	-10.731
▁awake	-10.7317
▁unfortunate	-10.7323
▁Bra	-10.733
▁connect	-10.7332
▁curse	-10.7339
▁origin	-10.7344
▁Hey	-10.735
▁reflect	-10.7352
▁Way	-10.7359
▁sympath	-10.7361
’	-10.7361
▁BORING	-10.7361
▁Bogart	-10.7361
▁Lawrence	-10.7361
▁Right	-10.7361
▁breast	-10.7361
▁buddy	-10.7361
▁consequences	-10.7361
▁contemporary	-10.7361
▁contrast	-10.7361
▁determine	-10.7361
▁distinguish	-10.7361
▁gorgeous	-10.7361
▁gorilla	-10.7361
▁neighbor	-10.7361
▁pattern	-10.7361
▁pitiful	-10.7361
▁plague	-10.7361
▁unwatchable	-10.7361
▁virus	-10.7361
▁Dillon	-10.7361
▁abysmal	-10.7361
▁cardboard	-10.7361
▁lazy	-10.7361
▁quiet	-10.7361
▁uniform	-10.7361
▁cousin	-10.7361
▁extend	-10.7361
▁knife	-10.7361
▁WAS	-10.7361
▁dubbing	-10.7361
▁nightmare	-10.7361
▁sheriff	-10.7361
▁Scene	-10.7361
▁prevent	-10.7361
equiv	-10.7361
▁audio	-10.7361
▁Albert	-10.7361
▁comedian	-10.7361
▁destruction	-10.7361
▁Besides	-10.7361
▁behave	-10.7362
▁medical	-10.7362
▁retire	-10.7362
▁alternative	-10.7362
▁angel	-10.7362
▁Sunday	-10.7362
▁Valley	-10.7362
▁bird	-10.7362
peaking	-10.7362
makers	-10.7362
▁Grier	-10.7362
▁Bollywood	-10.7362
▁shelf	-10.7362
▁Khan	-10.7362
▁blend	-10.7362
▁Theater	-10.7362
▁Tommy	-10.7363
▁stress	-10.7363
▁massive	-10.7363
▁Bush	-10.7363
▁scenario	-10.7363
▁flee	-10.7364
▁hideous	-10.7365
▁tank	-10.7365
▁unexpected	-10.7365
▁Cuba	-10.7365
▁consistent	-10.7366
▁Chase	-10.7366
▁purchas	-10.7366
▁WAR	-10.7366
▁labor	-10.7369
▁Deep	-10.737
▁stolen	-10.7371
▁Gabriel	-10.7372
▁Daniel	-10.7372
▁Horrible	-10.7373
▁USA	-10.7374
▁Johnson	-10.7374
▁Take	-10.7376
▁Julie	-10.7376
▁IT	-10.7378
▁Sound	-10.7379
▁loving	-10.7379
▁para	-10.738
▁abuse	-10.7382
▁speaks	-10.7382
▁hired	-10.7383
▁passable	-10.7384
▁cringe	-10.7386
▁critical	-10.7387
▁Jam	-10.7387
▁letter	-10.739
▁cutting	-10.7391
▁sweet	-10.7393
▁None	-10.7394
▁hence	-10.7401
▁Death	-10.7402
▁investigate	-10.7405
▁offended	-10.7406
▁16	-10.7409
▁Sadly	-10.741
▁impl	-10.7412
▁North	-10.7415
▁concerned	-10.7416
▁DE	-10.7417
▁replace	-10.7418
▁Max	-10.7422
▁arts	-10.7427
driven	-10.7428
▁chat	-10.7429
nes	-10.743
▁stranger	-10.7432
win	-10.7432
▁voices	-10.744
lph	-10.7451
▁$1	-10.7453
▁ONE	-10.7462
▁SPOILER	-10.7463
vis	-10.7465
▁deeply	-10.7467
ven	-10.7471
▁suffered	-10.7475
rent	-10.748
▁charming	-10.7482
▁States	-10.7483
▁San	-10.7485
▁rain	-10.7488
▁performer	-10.7493
▁row	-10.7499
▁discovered	-10.75
▁Ya	-10.7501
hey	-10.7502
▁lab	-10.7503
▁rat	-10.7508
room	-10.7508
▁opinions	-10.7508
▁growing	-10.7512
▁2.	-10.7523
▁wit	-10.7525
▁Home	-10.7538
gli	-10.7538
").	-10.7538
▁pulled	-10.7544
▁lets	-10.7546
fl	-10.7548
ither	-10.755
▁Pu	-10.7554
arm	-10.7555
▁legs	-10.7557
▁thank	-10.7567
▁hat	-10.7567
▁brave	-10.757
ches	-10.7574
visible	-10.7575
▁balance	-10.7582
▁dear	-10.7586
trap	-10.7586
▁Pat	-10.7587
bit	-10.7593
▁novels	-10.7593
▁motives	-10.7593
▁fea	-10.7594
▁/>*	-10.7597
ition	-10.7603
Pa	-10.7611
aron	-10.7619
▁titles	-10.763
▁lit	-10.7639
▁spoilers	-10.7643
ological	-10.7674
▁Have	-10.7679
ino	-10.7679
▁("	-10.7686
▁Ford	-10.7688
▁deadly	-10.7698
CAR	-10.7706
az	-10.7706
▁Mal	-10.7708
▁Neil	-10.7717
zi	-10.7723
▁dialogs	-10.7726
lar	-10.7727
▁Bre	-10.7739
teen	-10.7756
▁picks	-10.7759
▁format	-10.776
pher	-10.7762
▁mins	-10.7779
▁winn	-10.7785
ory	-10.7806
▁Mac	-10.7817
▁Ju	-10.7831
▁arms	-10.7844
EST	-10.7846
▁terror	-10.7864
▁cur	-10.7882
▁thrill	-10.7892
▁stink	-10.79
▁bears	-10.7918
ya	-10.7924
▁flashback	-10.7929
▁skill	-10.7931
▁ta	-10.7933
▁Cat	-10.7935
▁results	-10.7935
▁bare	-10.7967
roll	-10.7967
▁Tar	-10.7968
▁forgive	-10.7971
▁glo	-10.7973
▁Ver	-10.7979
eak	-10.8001
▁gag	-10.8005
▁dreams	-10.8026
onic	-10.8026
▁Rid	-10.8028
▁fulfill	-10.804
rid	-10.8044
▁hole	-10.8054
itting	-10.8059
▁boot	-10.8059
▁wins	-10.8061
▁struggl	-10.8071
▁Days	-10.8073
▁entertain	-10.8078
▁su	-10.8078
coherent	-10.8085
▁Sh	-10.8089
▁scientists	-10.8096
view	-10.8106
word	-10.811
except	-10.8111
Unfortunately	-10.8111
video	-10.8111
book	-10.8111
cording	-10.8111
ntin	-10.8112
comedy	-10.8112
series	-10.8115
They	-10.8128
▁Men	-10.8131
▁depict	-10.8134
scene	-10.8138
▁haunt	-10.8142
▁method	-10.8148
law	-10.8148
▁REAL	-10.8149
▁user	-10.8155
Other	-10.8167
ntil	-10.8174
▁East	-10.8177
▁appropriate	-10.8182
▁unpleasant	-10.8189
▁grab	-10.8189
▁dialogues	-10.819
▁addict	-10.8192
▁dogs	-10.8193
▁collect	-10.8193
▁employ	-10.8194
▁legend	-10.8194
▁Phil	-10.8194
	-10.8195
▁9/11	-10.8195
▁depend	-10.8195
▁psychopath	-10.8195
▁sleaze	-10.8195
▁Amazon	-10.8195
▁Barbara	-10.8195
▁Campbell	-10.8195
▁Captain	-10.8195
▁Caribe	-10.8195
▁Communist	-10.8195
▁Koontz	-10.8195
▁Macbeth	-10.8195
▁Massacre	-10.8195
▁Milligan	-10.8195
▁Picture	-10.8195
▁Quaid	-10.8195
▁Saudi	-10.8195
▁advance	-10.8195
▁astronaut	-10.8195
▁generation	-10.8195
▁guarantee	-10.8195
▁insipid	-10.8195
▁marginal	-10.8195
▁memories	-10.8195
▁poverty	-10.8195
▁president	-10.8195
▁restaurant	-10.8195
▁spectacular	-10.8195
▁stilted	-10.8195
▁transition	-10.8195
▁travesty	-10.8195
▁universe	-10.8195
▁widow	-10.8195
]	-10.8195
▁Actors	-10.8195
▁milk	-10.8195
▁reduce	-10.8195
▁resume	-10.8195
▁zoom	-10.8195
▁Street	-10.8195
▁eager	-10.8195
▁trial	-10.8195
▁Jennifer	-10.8195
▁guide	-10.8195
▁internet	-10.8195
▁ANY	-10.8195
▁Carrey	-10.8195
▁Diane	-10.8195
▁Kennedy	-10.8195
▁happi	-10.8195
▁surf	-10.8195
▁Camp	-10.8195
▁Hallmark	-10.8195
▁disbelief	-10.8195
▁bathroom	-10.8195
▁snow	-10.8195
▁Adam	-10.8195
werewolf	-10.8195
▁flood	-10.8195
▁combination	-10.8195
▁Canada	-10.8195
▁Godfather	-10.8195
▁Zeta	-10.8195
▁strike	-10.8195
▁timing	-10.8195
ROM	-10.8195
▁assistant	-10.8195
▁resist	-10.8195
▁cancer	-10.8196
▁possibilities	-10.8196
▁kidding	-10.8196
▁punishment	-10.8196
▁understood	-10.8196
▁finger	-10.8196
▁Muni	-10.8196
▁slightest	-10.8196
▁terrorists	-10.8196
▁resemblance	-10.8197
▁butcher	-10.8197
▁forgot	-10.8197
▁Again	-10.8197
▁Chupacabra	-10.8197
▁hostage	-10.8198
▁proud	-10.8198
▁flight	-10.8198
▁terrific	-10.8198
Three	-10.8198
▁recycl	-10.8199
▁toilet	-10.8199
▁bank	-10.8199
▁clueless	-10.8199
▁Mason	-10.82
▁mock	-10.82
▁dry	-10.8202
▁dating	-10.8203
▁arrives	-10.8204
▁chest	-10.8204
▁rebel	-10.8206
▁drivel	-10.8207
▁Lang	-10.8208
▁moon	-10.821
▁Israeli	-10.821
▁Hope	-10.8211
▁humorous	-10.8212
▁dub	-10.8212
▁Award	-10.8213
▁pray	-10.8213
▁Catherine	-10.8214
▁Dracula	-10.8214
▁Special	-10.8214
▁Jeff	-10.8214
▁Jimmy	-10.8215
▁Anth	-10.8216
▁Fane	-10.8219
▁incompetent	-10.8221
▁Break	-10.8221
▁erotic	-10.8221
▁Call	-10.8222
▁blonde	-10.8222
▁ignored	-10.8226
▁yawn	-10.8229
▁Music	-10.8229
▁Die	-10.824
▁Cry	-10.8241
hearted	-10.8242
sses	-10.8244
▁Yet	-10.8244
▁joy	-10.8244
▁Dark	-10.8246
▁haunted	-10.8248
▁Jr	-10.8248
▁char	-10.8249
▁bull	-10.825
▁YOU	-10.825
▁Frankly	-10.8251
▁Jon	-10.8254
▁Nick	-10.8254
▁errors	-10.8255
▁Vampire	-10.8256
▁Je	-10.8256
TH	-10.8257
▁Young	-10.8258
mong	-10.826
▁justice	-10.8261
▁Ni	-10.8263
other	-10.8264
mond	-10.8265
▁sen	-10.8268
▁whenever	-10.8268
▁warned	-10.8271
▁Part	-10.8274
▁raised	-10.8276
Ja	-10.8282
▁tortured	-10.8284
▁importantly	-10.8286
Har	-10.8291
ford	-10.8294
▁Ten	-10.83
▁cue	-10.8301
▁insist	-10.8303
▁West	-10.8306
izing	-10.8307
▁relationships	-10.8309
▁personally	-10.8315
▁previously	-10.8324
unny	-10.8341
minded	-10.8348
▁warm	-10.8356
▁chases	-10.8356
▁Jenn	-10.8366
▁noir	-10.839
▁Dar	-10.8405
95	-10.8435
▁judg	-10.8441
▁rang	-10.8449
▁Ki	-10.845
any	-10.8463
rust	-10.8466
▁ridiculously	-10.8478
ttle	-10.8482
lip	-10.8483
▁Lil	-10.85
▁beg	-10.8502
▁Cro	-10.8505
ern	-10.8512
▁stare	-10.8525
▁cow	-10.8531
fire	-10.8531
10	-10.8535
dding	-10.8537
▁Wal	-10.8539
cat	-10.8544
▁Sch	-10.8545
▁levels	-10.8552
▁killings	-10.8552
▁forty	-10.8563
▁rats	-10.8566
Ba	-10.8569
▁nicely	-10.8581
aked	-10.8584
hip	-10.8587
▁Col	-10.8595
▁idiots	-10.8595
▁placed	-10.8599
▁path	-10.8606
aught	-10.861
▁mass	-10.8614
DON	-10.862
▁hits	-10.8621
Of	-10.8633
...)	-10.8634
▁ghosts	-10.8645
▁theory	-10.8652
cience	-10.8652
▁hoped	-10.8658
▁gen	-10.8661
sex	-10.87
▁din	-10.8703
nity	-10.8725
pun	-10.8751
▁walks	-10.8758
antic	-10.8775
▁improve	-10.8792
▁pops	-10.8795
▁walls	-10.8795
▁swi	-10.8803
fu	-10.8815
eval	-10.8819
▁choices	-10.882
lines	-10.8821
▁kicks	-10.8824
▁ple	-10.8828
▁Wall	-10.883
▁motive	-10.8835
▁snake	-10.8836
▁judge	-10.8838
sci	-10.884
▁Pro	-10.884
▁loves	-10.8863
ncy	-10.8866
sky	-10.8874
▁attempted	-10.8888
black	-10.8894
▁sacrifice	-10.8898
▁Lu	-10.891
▁guessed	-10.8915
▁lie	-10.8916
lame	-10.8918
▁Fo	-10.8923
▁/	-10.8932
▁Bor	-10.8932
11	-10.8934
mper	-10.8941
▁India	-10.8959
▁Cla	-10.8961
▁slap	-10.8961
▁surreal	-10.8977
▁incident	-10.898
▁spark	-10.8983
cel	-10.8999
eck	-10.9009
▁cook	-10.9015
▁Hunt	-10.9016
Jones	-10.9019
Another	-10.902
Most	-10.902
Michael	-10.902
school	-10.902
walk	-10.902
horror	-10.902
production	-10.9021
style	-10.9022
drama	-10.9023
Whil	-10.9023
▁youth	-10.9026
think	-10.9033
▁via	-10.9034
dead	-10.9036
▁satisfy	-10.9039
▁disgust	-10.9041
▁witness	-10.9045
actually	-10.9059
uge	-10.9059
▁broke	-10.9089
▁chose	-10.9094
▁environment	-10.9095
▁convict	-10.9098
▁virgin	-10.9101
▁punish	-10.9102
raduation	-10.9102
▁wanna	-10.9102
ILL	-10.9103
▁Kru	-10.9103
climactic	-10.9104
▁adequate	-10.9104
▁evident	-10.9104
▁frequent	-10.9104
▁independent	-10.9104
▁ninja	-10.9104
▁phrase	-10.9104
▁Chicago	-10.9104
▁Fantasy	-10.9104
▁Govinda	-10.9104
▁Graham	-10.9104
▁Jonathan	-10.9104
▁Murphy	-10.9104
▁Ricci	-10.9104
▁Stupid	-10.9104
▁Tarantino	-10.9104
▁Taylor	-10.9104
▁Terrible	-10.9104
▁Vietnam	-10.9104
▁Woodbury	-10.9104
▁Zanti	-10.9104
▁accomplish	-10.9104
▁advertis	-10.9104
▁backdrop	-10.9104
▁benefit	-10.9104
▁central	-10.9104
▁clumsy	-10.9104
▁clunk	-10.9104
▁disagree	-10.9104
▁explicit	-10.9104
▁frustrated	-10.9104
▁helicopter	-10.9104
▁landscape	-10.9104
▁necessarily	-10.9104
▁nonsensical	-10.9104
▁occup	-10.9104
▁robbery	-10.9104
▁segment	-10.9104
▁supreme	-10.9104
▁trait	-10.9104
▁Arnold	-10.9104
▁Monster	-10.9104
▁arrest	-10.9104
▁interpretation	-10.9104
▁Palance	-10.9104
▁demonstrate	-10.9104
▁piano	-10.9104
▁welcome	-10.9104
▁Amanda	-10.9104
▁dedicat	-10.9104
▁Dylan	-10.9104
▁Satur	-10.9104
▁drown	-10.9104
▁official	-10.9104
▁excruciating	-10.9104
▁Hawk	-10.9104
▁Sheila	-10.9104
▁Olen	-10.9104
▁ladies	-10.9104
▁menacing	-10.9104
▁Henry	-10.9104
▁rifle	-10.9104
▁sandwich	-10.9104
▁Irwin	-10.9104
▁description	-10.9104
▁Palestinian	-10.9104
▁blast	-10.9104
▁Eastwood	-10.9104
▁lawyer	-10.9104
▁relies	-10.9104
▁execution	-10.9104
▁psychiatrist	-10.9104
omodo	-10.9104
▁props	-10.9104
▁nerve	-10.9104
▁alright	-10.9104
▁1940	-10.9104
▁sickening	-10.9104
▁Police	-10.9104
▁Blade	-10.9105
▁Mickey	-10.9105
▁wannabe	-10.9105
▁Characters	-10.9105
▁competent	-10.9105
▁spill	-10.9105
▁blah	-10.9105
Office	-10.9106
▁formulaic	-10.9106
▁subtlety	-10.9106
▁proceedings	-10.9106
▁vanish	-10.9106
▁property	-10.9106
▁Shame	-10.9106
▁witty	-10.9106
▁closing	-10.9106
▁3000	-10.9107
▁duty	-10.9107
▁funeral	-10.9107
▁nude	-10.9107
▁Academy	-10.9108
▁moronic	-10.9108
▁proof	-10.9108
▁survivor	-10.9108
▁obnoxious	-10.9108
▁Sara	-10.9109
▁gross	-10.9109
▁inane	-10.9109
▁price	-10.9109
?????	-10.9109
▁Master	-10.9109
▁reward	-10.911
▁Stone	-10.911
▁Willis	-10.9111
▁overrated	-10.9111
▁beast	-10.9111
▁convoluted	-10.9111
▁FX	-10.9112
▁everywhere	-10.9112
▁Tony	-10.9113
▁slice	-10.9113
▁Italy	-10.9113
▁posse	-10.9114
▁Waters	-10.9114
OK	-10.9115
▁guilty	-10.9115
▁puppet	-10.9116
▁selfish	-10.9116
▁intellectual	-10.9117
▁24	-10.9117
▁Vincent	-10.9117
▁translate	-10.9117
▁pill	-10.9119
▁lap	-10.9121
▁eaten	-10.9123
▁True	-10.9123
▁assure	-10.9123
▁Australian	-10.9123
▁Oz	-10.9123
▁Carlo	-10.9127
▁partial	-10.9127
▁invited	-10.9128
▁fascinating	-10.913
▁exit	-10.9131
▁En	-10.9132
▁sca	-10.9132
▁Piranha	-10.9133
▁outcome	-10.9138
▁PG	-10.9138
▁superb	-10.914
▁upset	-10.9144
▁steer	-10.9145
▁replaced	-10.915
▁counter	-10.915
place	-10.9152
REALLY	-10.9153
▁naturally	-10.9155
▁witnessed	-10.9157
▁mudd	-10.9157
▁Within	-10.9158
▁reel	-10.9162
eral	-10.9162
▁depicted	-10.9162
▁Billy	-10.9163
▁dated	-10.9165
▁offend	-10.9169
ins	-10.917
▁Anna	-10.9172
▁sand	-10.9175
▁accepted	-10.9178
▁Force	-10.9178
▁Rob	-10.9182
▁lands	-10.9182
▁SPOILERS	-10.9182
▁Skip	-10.9182
▁inject	-10.9183
roach	-10.9183
▁repeating	-10.9187
▁referr	-10.919
▁gain	-10.9193
▁Hunter	-10.9197
▁Germany	-10.9204
▁dare	-10.9212
▁Eve	-10.9212
▁prospect	-10.9214
▁assembl	-10.9215
▁proved	-10.9215
rush	-10.9222
▁incoherent	-10.9225
▁agreed	-10.923
ivi	-10.9235
▁corner	-10.9236
▁fooled	-10.9249
▁van	-10.9254
stage	-10.9256
▁com	-10.9264
▁classics	-10.9269
▁ste	-10.9272
▁focused	-10.9278
▁Lone	-10.9281
▁hi	-10.9285
▁dealers	-10.9293
▁subplots	-10.9302
▁meat	-10.9314
▁pot	-10.9317
hr	-10.9337
▁ju	-10.9343
▁blur	-10.9349
oooo	-10.9355
▁previews	-10.9356
▁goodness	-10.9367
now	-10.9375
▁Your	-10.9384
▁aged	-10.9402
going	-10.941
Com	-10.9421
▁holding	-10.9436
▁bath	-10.9447
berg	-10.9454
▁MAN	-10.9456
▁Del	-10.9465
▁winds	-10.949
▁graphics	-10.9491
▁operat	-10.9491
▁watches	-10.9503
erous	-10.9506
ement	-10.9516
▁cure	-10.9518
race	-10.9518
END	-10.9524
▁sings	-10.9525
ury	-10.9536
▁fed	-10.9547
▁Sant	-10.956
▁inner	-10.9581
▁Va	-10.9582
▁chi	-10.9583
▁Fu	-10.9587
▁gap	-10.9589
▁fu	-10.962
ram	-10.9635
leg	-10.9642
▁Sad	-10.9643
ache	-10.965
bble	-10.9651
▁cars	-10.9657
▁loads	-10.9658
▁plann	-10.9673
shi	-10.9696
▁hip	-10.9697
solved	-10.9708
▁claims	-10.971
▁ol	-10.9715
vor	-10.9719
▁def	-10.972
▁believed	-10.9728
▁critic	-10.9745
AC	-10.9769
ption	-10.977
▁Come	-10.9783
▁flaw	-10.9793
Alexand	-10.9794
lash	-10.9818
▁streets	-10.9822
▁Tru	-10.9829
▁bu	-10.983
▁explosion	-10.9832
▁preview	-10.9833
▁Gl	-10.9835
▁rule	-10.9836
▁weapon	-10.9838
▁dollar	-10.984
▁soldier	-10.9841
Scar	-10.9848
▁oppos	-10.9848
rated	-10.9851
▁bone	-10.9873
brow	-10.989
▁sto	-10.9897
uthern	-10.9903
▁rely	-10.9942
▁cared	-10.9943
▁---	-10.9944
▁lips	-10.9945
▁Salma	-10.9951
▁Nor	-10.9967
▁ripp	-10.9971
era	-10.9973
▁exists	-10.9981
▁LA	-10.9982
▁Thing	-10.9987
▁announce	-10.9989
night	-11.0012
▁fund	-11.0012
$	-11.0018
Look	-11.0018
Second	-11.0018
fight	-11.0019
ONE	-11.002
Also	-11.002
world	-11.002
Love	-11.002
when	-11.0021
minute	-11.0021
Jack	-11.0023
Avoid	-11.0023
Every	-11.0023
Director	-11.0024
type	-11.003
Mart	-11.0032
Finally	-11.0034
▁irritat	-11.0042
rubber	-11.0046
▁progress	-11.0048
▁tomb	-11.0048
captured	-11.0054
/10	-11.0061
▁trail	-11.0073
▁invite	-11.0077
▁irre	-11.0079
▁gut	-11.0079
▁escapes	-11.0081
ipping	-11.0082
boy	-11.0086
▁ear	-11.0087
▁quit	-11.0087
characterization	-11.0088
▁hire	-11.0092
▁homosexual	-11.0101
▁inform	-11.0103
▁radio	-11.0104
▁inhabit	-11.0104
▁Egypt	-11.0104
NEVER	-11.0104
thodox	-11.0104
–	-11.0104
▁'80	-11.0104
▁Bullock	-11.0104
▁CANNIBAL	-11.0104
▁Field	-11.0104
▁Grudge	-11.0104
▁Himesh	-11.0104
▁Hitler	-11.0104
▁Internet	-11.0104
▁Laurel	-11.0104
▁Lenzi	-11.0104
▁Lombard	-11.0104
▁Matthew	-11.0104
▁President	-11.0104
▁Schneider	-11.0104
▁Swedish	-11.0104
▁altogether	-11.0104
▁cliff	-11.0104
▁creativity	-11.0104
▁disgrace	-11.0104
▁equipment	-11.0104
▁establish	-11.0104
▁ethnic	-11.0104
▁gruesome	-11.0104
▁hackneyed	-11.0104
▁kitchen	-11.0104
▁mirror	-11.0104
▁motorcycle	-11.0104
▁ourselves	-11.0104
▁phony	-11.0104
▁producing	-11.0104
▁qualities	-11.0104
▁repetitive	-11.0104
▁shoddy	-11.0104
▁silver	-11.0104
▁soccer	-11.0104
▁spooky	-11.0104
▁strength	-11.0104
▁treasure	-11.0104
▁wardrobe	-11.0104
▁Gordon	-11.0104
▁Shatner	-11.0104
▁Sheriff	-11.0104
▁WHY	-11.0104
▁chief	-11.0104
▁morning	-11.0104
▁surface	-11.0104
▁sympathetic	-11.0104
▁vomit	-11.0104
▁climb	-11.0104
▁outrageous	-11.0104
▁peace	-11.0104
▁tacky	-11.0104
▁variety	-11.0104
▁Douglas	-11.0104
▁Except	-11.0104
▁Ocean	-11.0104
▁karate	-11.0104
▁marry	-11.0104
▁rotten	-11.0104
▁Cannon	-11.0104
▁Swain	-11.0104
▁nominated	-11.0104
▁barrel	-11.0104
▁measure	-11.0104
▁Personally	-11.0104
▁skits	-11.0104
▁Sandra	-11.0104
▁Tobin	-11.0104
▁afternoon	-11.0104
▁afford	-11.0104
▁assumption	-11.0104
Predator	-11.0104
▁Lovecraft	-11.0104
▁sloppy	-11.0104
▁spell	-11.0104
▁Project	-11.0104
▁Giant	-11.0104
▁Anderson	-11.0104
▁franchise	-11.0104
▁Britain	-11.0104
▁generous	-11.0104
▁strictly	-11.0104
▁frustrating	-11.0104
▁ONLY	-11.0104
▁Basically	-11.0104
Happy	-11.0104
▁astonish	-11.0104
▁gripping	-11.0104
▁weight	-11.0104
▁drift	-11.0104
▁degree	-11.0104
▁Keaton	-11.0104
▁distort	-11.0104
▁dubbed	-11.0104
▁narrow	-11.0104
▁underground	-11.0104
"...	-11.0104
▁tribe	-11.0104
▁Troma	-11.0104
▁jock	-11.0104
▁stylish	-11.0104
▁agenda	-11.0104
▁Danny	-11.0105
▁Hayes	-11.0105
▁daft	-11.0105
▁stiff	-11.0105
▁Kids	-11.0105
▁nurse	-11.0105
▁Dunne	-11.0105
▁mature	-11.0105
▁hokey	-11.0105
▁liking	-11.0105
▁Army	-11.0105
▁Walter	-11.0106
▁Half	-11.0106
▁data	-11.0106
▁$2	-11.0106
▁Austen	-11.0106
▁Niro	-11.0106
▁primar	-11.0106
▁merit	-11.0107
▁Jason	-11.0107
▁wave	-11.0107
▁cobra	-11.0107
▁neck	-11.0107
▁clock	-11.0107
▁2/10	-11.0107
▁meaningful	-11.0107
▁pants	-11.0107
finitely	-11.0108
▁pimp	-11.0108
▁sadistic	-11.0108
▁flim	-11.0109
▁Elizabeth	-11.0109
▁sophisticated	-11.0109
▁regardless	-11.0109
ville	-11.011
▁Snow	-11.0111
▁elsewhere	-11.0111
occasionally	-11.0111
▁Later	-11.0112
▁chicken	-11.0113
descent	-11.0114
▁complicated	-11.0114
▁drunken	-11.0114
▁steel	-11.0114
▁Beyond	-11.0115
▁antics	-11.0115
▁beaten	-11.0117
▁Baby	-11.0118
▁Hellraiser	-11.0118
▁overacting	-11.012
ude	-11.012
▁chosen	-11.012
▁Alas	-11.0121
▁Dem	-11.0121
▁UK	-11.0122
▁media	-11.0122
▁Nation	-11.0125
▁School	-11.0127
hiding	-11.0129
▁spoken	-11.013
▁Whatever	-11.013
▁Such	-11.0131
▁Fun	-11.0133
▁identifi	-11.0138
▁Bean	-11.0139
▁borrowed	-11.0141
▁Gun	-11.0141
▁prom	-11.0142
▁aging	-11.0143
▁Gone	-11.0145
▁Grade	-11.0146
▁Nobody	-11.0147
▁Wind	-11.0147
▁compelling	-11.0148
▁circumstances	-11.0148
▁III	-11.0151
▁Qu	-11.0151
▁handled	-11.0153
▁surrounding	-11.0155
▁dimensional	-11.0155
▁Save	-11.016
▁3/10	-11.0167
▁properly	-11.0169
▁Q	-11.017
▁RA	-11.0173
▁packed	-11.0175
▁net	-11.0176
▁rough	-11.0179
▁Les	-11.0185
▁hopeful	-11.0192
▁freaking	-11.0197
▁filler	-11.0202
▁Rose	-11.0203
▁subtitles	-11.0204
▁Plan	-11.0206
▁sky	-11.0209
▁rolled	-11.021
▁upper	-11.0212
▁intentional	-11.0214
▁Bern	-11.0216
Super	-11.0216
▁pretending	-11.0216
▁forth	-11.0218
▁staged	-11.022
▁explod	-11.022
▁Wild	-11.022
omic	-11.022
▁dumber	-11.0225
▁paus	-11.0226
▁yelling	-11.0226
ability	-11.0227
éri	-11.0233
▁Brooks	-11.0236
▁wrapp	-11.0236
▁continued	-11.0236
4)	-11.0243
▁Ah	-11.0243
▁:)	-11.0243
▁introduce	-11.0253
▁status	-11.0263
ates	-11.0267
jury	-11.0271
chasing	-11.0273
These	-11.0273
▁Lost	-11.0277
▁fired	-11.0278
▁quarter	-11.028
▁mate	-11.0287
▁Bas	-11.029
▁anger	-11.0291
zan	-11.0297
*****	-11.0304
Man	-11.0307
▁oil	-11.0318
▁disco	-11.0324
▁ador	-11.033
ened	-11.0335
▁tem	-11.0355
▁Par	-11.0358
▁ears	-11.0389
OS	-11.0392
ollow	-11.0395
▁grim	-11.04
mine	-11.0401
cough	-11.0405
PS	-11.0408
▁Mart	-11.0427
▁ideal	-11.0429
▁worker	-11.044
▁stinks	-11.0444
▁thrills	-11.0445
elf	-11.0464
▁checked	-11.0469
▁viewed	-11.0469
▁defeat	-11.0474
▁disappears	-11.0476
▁passed	-11.0477
ull	-11.0494
▁Barne	-11.0501
▁ice	-11.0501
ood	-11.0502
▁expressions	-11.0505
▁leg	-11.0518
aaa	-11.0526
▁seats	-11.053
▁Barr	-11.0548
▁closely	-11.0567
▁dim	-11.0577
▁ME	-11.0577
▁Ash	-11.0599
▁stone	-11.0601
▁ninet	-11.0601
▁differently	-11.0603
ET	-11.0629
TER	-11.0633
▁scares	-11.0638
▁staying	-11.0645
eri	-11.0654
tech	-11.0663
ystery	-11.0664
▁Has	-11.0673
turned	-11.0682
▁enhanc	-11.0688
▁namely	-11.0719
▁Tin	-11.0742
aster	-11.0759
zar	-11.0775
▁decades	-11.078
elli	-11.0783
▁Ken	-11.0786
▁Ice	-11.0786
writer	-11.0788
▁rides	-11.0789
▁strip	-11.0791
onnie	-11.0792
car	-11.08
▁breaks	-11.0809
▁STAR	-11.0819
At	-11.084
umber	-11.084
▁heroic	-11.0843
actor	-11.0864
▁shower	-11.0874
▁Za	-11.0886
▁Mag	-11.0888
▁aid	-11.0893
aka	-11.0942
focuses	-11.0945
▁parent	-11.0957
▁nation	-11.0959
▁Cut	-11.0972
▁Leon	-11.0975
ove	-11.0977
▁Andrew	-11.0978
▁poster	-11.0995
0%	-11.0997
posed	-11.1015
▁admire	-11.1041
▁poet	-11.1051
▁enjoying	-11.1059
▁pale	-11.1065
▁SE	-11.1086
▁occasion	-11.1088
tens	-11.1091
▁cheat	-11.1096
face	-11.1106
evi	-11.1106
▁kidnap	-11.1116
▁prep	-11.112
print	-11.1127
#	-11.1129
foot	-11.1129
burn	-11.1129
mouth	-11.113
Movie	-11.1131
famous	-11.1131
moving	-11.1131
thriller	-11.1131
forward	-11.1132
born	-11.1133
after	-11.1134
SPOILERS	-11.1139
▁distract	-11.1142
Plan	-11.1143
▁rais	-11.1143
▁Kim	-11.115
▁wander	-11.115
Lone	-11.1157
▁Grant	-11.1162
hour	-11.1164
say	-11.1174
evy	-11.1176
▁slight	-11.1183
▁dirt	-11.1189
▁threat	-11.119
ogue	-11.1191
▁favorites	-11.1192
big	-11.1195
dress	-11.1195
▁predict	-11.1199
▁Russia	-11.12
▁ignore	-11.1203
▁Jess	-11.1205
▁stole	-11.1206
▁Ever	-11.1208
▁adapt	-11.121
▁alcohol	-11.1212
▁uncle	-11.1212
▁auto	-11.1213
▁confront	-11.1213
[	-11.1213
▁Cinema	-11.1214
▁symbol	-11.1214
ndition	-11.1214
▁Francis	-11.1215
▁NBC	-11.1215
▁adolescen	-11.1215
▁airplane	-11.1215
▁cyborg	-11.1215
▁defense	-11.1215
▁liberal	-11.1215
▁lizard	-11.1215
▁Advent	-11.1215
▁Behind	-11.1215
▁Detroit	-11.1215
▁Margaret	-11.1215
▁Might	-11.1215
▁Morgan	-11.1215
▁Pacino	-11.1215
▁Paxton	-11.1215
▁Rourke	-11.1215
▁Swayze	-11.1215
▁Vivian	-11.1215
▁ambition	-11.1215
▁anticipation	-11.1215
▁artificial	-11.1215
▁buddies	-11.1215
▁camcorder	-11.1215
▁campaign	-11.1215
▁circle	-11.1215
▁conspiracy	-11.1215
▁diamond	-11.1215
▁docudrama	-11.1215
▁elderly	-11.1215
▁elevator	-11.1215
▁exaggerate	-11.1215
▁glimpse	-11.1215
▁graff	-11.1215
▁holiday	-11.1215
▁illogical	-11.1215
▁immortal	-11.1215
▁inaccurate	-11.1215
▁inspiration	-11.1215
▁juvenile	-11.1215
▁massacre	-11.1215
▁monologue	-11.1215
▁ocean	-11.1215
▁passengers	-11.1215
▁plausible	-11.1215
▁pleasure	-11.1215
▁precisely	-11.1215
▁pseudo	-11.1215
▁respond	-11.1215
▁solution	-11.1215
▁stadium	-11.1215
▁subsequent	-11.1215
▁venture	-11.1215
▁veteran	-11.1215
Critters	-11.1215
_	-11.1215
▁Hoffman	-11.1215
▁Kermit	-11.1215
▁Kidman	-11.1215
▁attached	-11.1215
▁concentrat	-11.1215
▁confirm	-11.1215
▁dreary	-11.1215
▁dreck	-11.1215
▁unfold	-11.1215
▁BBC	-11.1215
▁countries	-11.1215
▁downhill	-11.1215
vention	-11.1215
▁Miller	-11.1215
▁mutant	-11.1215
▁valid	-11.1215
▁chef	-11.1215
▁Price	-11.1215
▁Simon	-11.1215
▁ensue	-11.1215
▁firm	-11.1215
▁seduc	-11.1215
▁Fair	-11.1215
▁honor	-11.1215
▁pursue	-11.1215
▁sweat	-11.1215
▁render	-11.1215
▁Susan	-11.1215
▁risk	-11.1215
▁popcorn	-11.1215
▁illegal	-11.1215
▁inherit	-11.1215
▁Father	-11.1215
▁rope	-11.1215
▁stalk	-11.1215
▁dozen	-11.1215
▁Jerem	-11.1215
▁consum	-11.1215
▁tiny	-11.1215
▁idol	-11.1215
▁Believe	-11.1215
▁aircraft	-11.1215
▁cruci	-11.1215
▁copied	-11.1215
▁parallel	-11.1215
▁Wesley	-11.1215
▁vast	-11.1215
▁doomed	-11.1215
▁spaghetti	-11.1215
▁afterwards	-11.1215
▁weather	-11.1215
▁Redford	-11.1215
▁discern	-11.1215
▁resident	-11.1215
▁Nancy	-11.1215
▁Johnny	-11.1215
▁gray	-11.1215
▁mummy	-11.1215
▁Garfield	-11.1215
▁Pitt	-11.1216
▁Hopper	-11.1216
▁identity	-11.1216
▁broad	-11.1216
▁sidekick	-11.1216
▁Foster	-11.1216
▁Comedy	-11.1216
▁Rigg	-11.1216
▁hatred	-11.1216
▁rude	-11.1216
▁album	-11.1216
▁Linne	-11.1216
▁symbolism	-11.1216
▁grass	-11.1216
▁noises	-11.1216
▁journalist	-11.1216
▁objective	-11.1216
▁inevitable	-11.1216
▁misery	-11.1217
▁thumb	-11.1217
▁Wolf	-11.1217
▁leap	-11.1217
▁Freddie	-11.1217
▁steam	-11.1217
▁satire	-11.1217
▁crush	-11.1217
▁Bergman	-11.1217
▁Ameli	-11.1217
▁incest	-11.1217
▁petty	-11.1217
▁homosexuality	-11.1218
▁China	-11.1218
▁weekend	-11.1218
▁Carson	-11.1218
▁Jill	-11.1218
▁Under	-11.1218
▁lake	-11.1218
▁Candy	-11.1218
?!?!	-11.1219
▁thick	-11.1219
▁Romero	-11.1219
▁address	-11.1219
▁MTV	-11.1219
▁conventional	-11.1219
▁states	-11.1219
▁Castro	-11.1219
▁rapid	-11.1219
▁Perry	-11.1219
▁fence	-11.122
▁Kane	-11.122
▁Check	-11.122
▁pool	-11.1221
▁=	-11.1221
▁Henriksen	-11.1221
▁minus	-11.1221
▁cents	-11.1221
▁laid	-11.1222
▁Robin	-11.1222
▁Jackson	-11.1222
▁Old	-11.1223
▁storytelling	-11.1223
▁mud	-11.1223
▁fancy	-11.1223
▁glow	-11.1224
▁Alive	-11.1224
▁Kiss	-11.1224
affy	-11.1224
▁despicabl	-11.1225
▁tag	-11.1225
▁Marv	-11.1225
▁bias	-11.1226
▁chill	-11.1226
split	-11.1227
▁bug	-11.1227
▁photographer	-11.1228
▁loses	-11.1228
▁vile	-11.1228
▁tolerate	-11.1229
▁reflection	-11.1229
▁cu	-11.123
▁Michel	-11.123
▁argue	-11.123
▁exec	-11.123
▁exposed	-11.1231
▁Meanwhile	-11.1231
▁Probably	-11.1231
▁deliberate	-11.1231
▁dud	-11.1231
▁Earl	-11.1231
▁float	-11.1231
▁descend	-11.1231
▁Bank	-11.1232
▁Kind	-11.1232
▁removed	-11.1233
▁copies	-11.1234
▁biker	-11.1234
▁hitch	-11.1234
▁Dick	-11.1234
▁crashes	-11.1234
▁humanity	-11.1235
▁childish	-11.1235
▁danger	-11.1237
▁bond	-11.1238
▁ranch	-11.1239
▁choppy	-11.1239
▁fallen	-11.124
YING	-11.124
▁Corn	-11.1241
▁hitting	-11.1241
▁explore	-11.1241
▁fourth	-11.1241
▁impos	-11.1242
▁everyday	-11.1243
▁Our	-11.1246
▁Kate	-11.1248
▁acceptable	-11.1249
▁Read	-11.1249
▁health	-11.1249
▁hopeless	-11.125
▁Regardless	-11.1251
▁1/2	-11.1252
▁21	-11.1253
▁View	-11.1253
Battle	-11.1254
▁basi	-11.1254
▁Long	-11.1258
Dr	-11.1259
▁lowest	-11.1259
▁gal	-11.126
▁winner	-11.1261
cha	-11.1262
▁Anne	-11.1262
▁bash	-11.1262
▁Run	-11.1263
▁Cap	-11.1263
▁/>1.	-11.1265
rick	-11.1269
▁Cool	-11.127
▁Ball	-11.1271
▁bombs	-11.1272
▁*1/2	-11.1273
▁flawed	-11.1277
▁wandering	-11.128
▁cheating	-11.128
▁hy	-11.1282
▁entertained	-11.1289
▁pros	-11.1303
▁kissing	-11.1311
▁briefly	-11.1312
▁spy	-11.1313
6)	-11.1315
▁Cor	-11.1321
▁sold	-11.1325
▁dinosaurs	-11.133
▁Surely	-11.134
commando	-11.1345
▁rot	-11.1348
▁loaded	-11.1349
▁burning	-11.135
oggy	-11.1353
lux	-11.1357
▁VI	-11.1361
▁emotionally	-11.1368
▁Put	-11.1369
▁Ac	-11.1372
▁sexually	-11.1383
▁Finally	-11.1388
▁closet	-11.1395
▁relations	-11.1396
▁threads	-11.1396
TS	-11.1401
actors	-11.1402
▁paced	-11.1402
▁cha	-11.1402
▁filmmaking	-11.1403
▁Hel	-11.1405
▁shy	-11.1406
Basic	-11.1408
▁lol	-11.1411
▁online	-11.1414
▁conc	-11.1419
▁et	-11.1425
Unlike	-11.1431
▁slapp	-11.1433
▁Ham	-11.1447
▁Pare	-11.1451
minisc	-11.1461
▁+	-11.1462
▁avoided	-11.1469
ature	-11.1496
▁AT	-11.151
▁bars	-11.1517
▁guts	-11.1525
▁explosions	-11.153
▁Things	-11.1531
uit	-11.1539
miss	-11.1545
pha	-11.1556
racy	-11.1565
▁mute	-11.1571
▁punk	-11.1577
▁Row	-11.1577
▁Alex	-11.1582
▁harder	-11.1584
gard	-11.1586
ailing	-11.1588
late	-11.1594
ula	-11.1611
▁persona	-11.1623
▁Stu	-11.1625
▁Sun	-11.1626
▁wi	-11.1627
▁exceptional	-11.1632
▁concerns	-11.1634
▁resembl	-11.1636
tual	-11.1639
faced	-11.164
una	-11.1644
tation	-11.1659
▁slo	-11.1678
rough	-11.168
▁Mario	-11.1685
▁Bell	-11.1687
▁Total	-11.17
▁notes	-11.1706
▁Gen	-11.1707
zing	-11.1711
▁terroris	-11.1716
▁guards	-11.1735
inning	-11.1748
▁tricks	-11.1756
▁justify	-11.1758
▁bust	-11.176
gged	-11.1765
▁cheaply	-11.1802
▁portrayals	-11.1804
ola	-11.1806
▁fo	-11.181
▁Str	-11.1811
▁tit	-11.1822
hot	-11.183
cons	-11.1841
▁Bla	-11.1842
▁shell	-11.1849
▁Unc	-11.1868
tine	-11.1868
▁Christians	-11.1875
far	-11.1895
wan	-11.1904
arrow	-11.1912
located	-11.1916
▁Roman	-11.1954
mash	-11.1959
▁Val	-11.1959
itty	-11.1978
ification	-11.2013
▁Cast	-11.2033
TING	-11.2049
▁notion	-11.2065
▁gro	-11.2102
tsy	-11.2115
wash	-11.2128
runner	-11.213
elle	-11.2135
rious	-11.2136
pop	-11.214
▁subplot	-11.2195
▁ON	-11.22
Go	-11.2201
ARE	-11.2216
▁arc	-11.2222
▁catche	-11.2244
rling	-11.2253
▁Yo	-11.2265
▁gla	-11.2275
▁boo	-11.2281
▁TR	-11.2307
▁PR	-11.2321
▁kn	-11.2336
▁bow	-11.234
ject	-11.235
▁hill	-11.2357
une	-11.2361
shot	-11.2365
Q	-11.2376
conscious	-11.2376
lander	-11.2378
Angel	-11.2379
Night	-11.238
alien	-11.2381
From	-11.2381
power	-11.2381
Maybe	-11.2381
twist	-11.2381
writing	-11.2381
child	-11.2381
▁multi	-11.2382
including	-11.2382
check	-11.2384
motion	-11.2384
vision	-11.2388
loon	-11.2389
▁poke	-11.2389
Max	-11.2392
▁presum	-11.2393
ban	-11.2396
▁surround	-11.2401
▁delight	-11.2407
because	-11.2411
dog	-11.2414
Here	-11.2415
▁193	-11.2416
▁Gal	-11.2417
▁pul	-11.2425
▁threaten	-11.2428
▁fictional	-11.2428
▁flop	-11.2434
▁filth	-11.2437
▁challenge	-11.2437
▁bitch	-11.2438
▁Ger	-11.2439
also	-11.2445
▁spoke	-11.245
▁tip	-11.2454
iblical	-11.2458
▁Eva	-11.2459
ament	-11.2461
Spoiler	-11.2463
▁melodrama	-11.2463
▁rival	-11.2463
evolution	-11.2465
▁Hannibal	-11.2465
▁Slipknot	-11.2465
▁Wynorski	-11.2465
▁insomnia	-11.2465
forgivable	-11.2465
loodthirsty	-11.2465
▁2006	-11.2465
▁ALERT	-11.2465
▁Afghanistan	-11.2465
▁California	-11.2465
▁Cushing	-11.2465
▁EVERYTHING	-11.2465
▁Iraq	-11.2465
▁Lloyd	-11.2465
▁Manhattan	-11.2465
▁Minnelli	-11.2465
▁Nicholas	-11.2465
▁Simpson	-11.2465
▁Stewart	-11.2465
▁Sutherland	-11.2465
▁Triangle	-11.2465
▁Veronica	-11.2465
▁Video	-11.2465
▁WATCH	-11.2465
▁Walken	-11.2465
▁Werewolf	-11.2465
▁aforementioned	-11.2465
▁assassin	-11.2465
▁atrocity	-11.2465
▁conceived	-11.2465
▁constructed	-11.2465
▁context	-11.2465
▁disconnected	-11.2465
▁disregard	-11.2465
▁documentaries	-11.2465
▁embarrassment	-11.2465
▁encourage	-11.2465
▁engine	-11.2465
▁enormous	-11.2465
▁enthusiasm	-11.2465
▁festival	-11.2465
▁grotesque	-11.2465
▁individual	-11.2465
▁innocence	-11.2465
▁insurance	-11.2465
▁irrelevant	-11.2465
▁neglect	-11.2465
▁nervous	-11.2465
▁obtain	-11.2465
▁possession	-11.2465
▁selection	-11.2465
▁sinister	-11.2465
▁skeleton	-11.2465
▁superficial	-11.2465
▁suspend	-11.2465
▁transfer	-11.2465
▁transvestite	-11.2465
▁undoubtedly	-11.2465
▁voodoo	-11.2465
▁werewolves	-11.2465
▁wrestler	-11.2465
Jurassic	-11.2465
▁HBO	-11.2465
▁Merchant	-11.2465
▁Terror	-11.2465
▁Writer	-11.2465
▁betray	-11.2465
▁casual	-11.2465
▁demise	-11.2465
▁drill	-11.2465
▁emerge	-11.2465
▁examine	-11.2465
▁frightening	-11.2465
▁identify	-11.2465
▁increasingly	-11.2465
▁industrial	-11.2465
▁puzzle	-11.2465
▁recruit	-11.2465
▁relevan	-11.2465
▁spiral	-11.2465
▁vicious	-11.2465
▁vocal	-11.2465
▁wogs	-11.2465
▁worry	-11.2465
▁Cheech	-11.2465
▁click	-11.2465
▁eliminat	-11.2465
esquire	-11.2465
▁Arnie	-11.2465
▁changing	-11.2465
Northfork	-11.2465
▁Fallon	-11.2465
▁Frost	-11.2465
▁geek	-11.2465
▁rehash	-11.2465
▁spectacle	-11.2465
▁trio	-11.2465
▁homicid	-11.2465
▁intimate	-11.2465
▁library	-11.2465
▁Tyler	-11.2465
AWFUL	-11.2465
▁disclaimer	-11.2465
▁Abhi	-11.2465
▁BIG	-11.2465
▁Sense	-11.2465
▁recover	-11.2465
▁Caine	-11.2465
▁controversial	-11.2465
▁simulat	-11.2465
▁perspective	-11.2465
▁Blue	-11.2465
▁mainstream	-11.2465
▁clothing	-11.2465
▁portion	-11.2465
▁storm	-11.2465
▁overacted	-11.2465
▁wealthy	-11.2465
▁monoton	-11.2465
▁digital	-11.2465
▁principal	-11.2465
nior	-11.2465
▁broadcast	-11.2465
▁hung	-11.2465
▁Hammer	-11.2465
▁Burns	-11.2465
▁miniseries	-11.2465
▁swallow	-11.2465
▁tiresome	-11.2465
▁beware	-11.2465
▁unsatisfying	-11.2465
▁exchange	-11.2465
▁0/10	-11.2465
▁Hurt	-11.2465
▁height	-11.2465
▁fond	-11.2465
▁citizen	-11.2465
▁cultural	-11.2465
▁micro	-11.2465
▁promotion	-11.2465
▁staff	-11.2465
Arthur	-11.2465
▁bloke	-11.2466
▁showcase	-11.2466
▁abyss	-11.2466
▁profound	-11.2466
▁sympathize	-11.2466
▁craze	-11.2466
▁Ripley	-11.2466
▁Budd	-11.2466
▁silence	-11.2466
▁dinner	-11.2466
▁declar	-11.2466
▁prolong	-11.2466
▁Krupp	-11.2466
▁darn	-11.2466
▁Damme	-11.2466
▁straightforward	-11.2466
▁fascination	-11.2466
▁lend	-11.2466
▁blew	-11.2466
▁Moses	-11.2467
induce	-11.2467
▁bridge	-11.2467
▁Think	-11.2467
Hey	-11.2467
▁Hogan	-11.2467
▁Clint	-11.2467
▁Kurt	-11.2467
▁classmate	-11.2467
▁smash	-11.2467
▁confrontation	-11.2467
▁Irene	-11.2467
▁trace	-11.2467
▁angst	-11.2467
▁vain	-11.2468
▁Spring	-11.2468
▁Spain	-11.2468
▁Book	-11.2468
▁Brand	-11.2468
▁slick	-11.2468
▁involvement	-11.2468
▁basement	-11.2468
▁feminist	-11.2468
▁195	-11.2469
▁Darkness	-11.2469
▁June	-11.2469
▁Norman	-11.2469
▁Lady	-11.2469
▁Jur	-11.247
▁infant	-11.247
▁sentimental	-11.247
▁ditch	-11.247
▁claw	-11.247
▁helm	-11.247
▁Helen	-11.247
itude	-11.247
▁Step	-11.2471
▁Nero	-11.2471
▁vein	-11.2471
▁shred	-11.2471
▁Marx	-11.2471
▁Hughes	-11.2472
▁block	-11.2472
▁/>2)	-11.2472
▁wow	-11.2472
▁rocket	-11.2472
▁burie	-11.2472
▁NY	-11.2472
▁scarier	-11.2473
▁restrain	-11.2473
dropping	-11.2473
▁handsome	-11.2473
▁corrupt	-11.2474
ridge	-11.2474
rank	-11.2475
▁banne	-11.2475
▁countless	-11.2477
▁cards	-11.2477
Tart	-11.2477
▁DIR	-11.2477
▁Wright	-11.2477
▁madness	-11.2477
▁Lane	-11.2477
▁reuni	-11.2477
▁plants	-11.2478
▁exhaust	-11.2478
▁terrifying	-11.2478
▁bang	-11.2478
▁Order	-11.2478
▁Lyn	-11.248
▁Dante	-11.2481
▁Hop	-11.2481
▁celebrat	-11.2481
▁drain	-11.2481
▁Jackie	-11.2481
tav	-11.2482
▁AIDEN	-11.2483
▁Sydney	-11.2483
▁heaven	-11.2483
▁obligator	-11.2483
▁Claude	-11.2483
▁construction	-11.2485
▁Dame	-11.2487
▁OH	-11.2487
▁Rip	-11.2487
▁Hold	-11.2487
indulgent	-11.2487
▁irony	-11.2487
▁Jesse	-11.2488
▁hug	-11.2489
▁thankfully	-11.249
▁Angela	-11.249
nda	-11.249
▁Rather	-11.249
▁photographed	-11.249
▁Marsh	-11.2491
▁Dune	-11.2492
▁combine	-11.2492
▁shuttl	-11.2492
▁despise	-11.2494
▁function	-11.2495
▁Play	-11.2495
▁tackl	-11.2495
▁Something	-11.2495
▁overwhelming	-11.2495
▁Davies	-11.2496
▁Mother	-11.2497
▁alb	-11.2498
▁Desi	-11.2498
▁settle	-11.2499
▁Rent	-11.2499
▁debate	-11.25
▁update	-11.2502
▁Rick	-11.2503
▁tame	-11.2503
▁maniac	-11.2503
▁characteristic	-11.2503
▁Barry	-11.2504
▁Chain	-11.2504
▁Third	-11.2507
▁aunt	-11.2507
▁passionate	-11.2508
▁GOD	-11.2509
▁Stick	-11.2511
▁bitter	-11.2511
NA	-11.2511
▁conclude	-11.2515
▁14	-11.2516
5/10	-11.2516
Action	-11.2516
▁realism	-11.2518
lot	-11.252
▁desired	-11.2522
▁shift	-11.2524
▁chopp	-11.2526
▁disliked	-11.2526
▁cheated	-11.2527
▁Try	-11.2527
▁CG	-11.2529
▁Pie	-11.2531
▁lord	-11.2532
▁senseless	-11.2533
▁nun	-11.2533
▁progressed	-11.2533
▁farmer	-11.2534
▁traditional	-11.2537
▁distracting	-11.2539
▁bound	-11.2539
▁Burt	-11.2541
lumber	-11.2542
▁sale	-11.2542
▁fortune	-11.2543
▁lur	-11.2543
▁Spacey	-11.2549
VE	-11.255
▁poker	-11.2553
▁pad	-11.2554
▁Rest	-11.2554
▁conscious	-11.2554
Robot	-11.2555
▁Mid	-11.2556
Tom	-11.2557
▁candy	-11.2559
▁arrived	-11.2563
▁satisfying	-11.2563
stood	-11.2565
▁interviewed	-11.2566
presumably	-11.2566
▁coma	-11.2573
▁studying	-11.2574
▁Sheen	-11.2575
▁2)	-11.2586
▁icon	-11.2588
▁escaped	-11.2601
▁upside	-11.2608
▁CD	-11.261
cro	-11.2617
▁reporter	-11.2624
▁abound	-11.2626
▁rolling	-11.2628
▁Luck	-11.2629
▁Dove	-11.2632
owl	-11.2633
▁strain	-11.264
▁Hero	-11.2641
ridden	-11.2642
▁whim	-11.2644
writers	-11.2648
titled	-11.2662
▁admir	-11.2666
fan	-11.2671
▁stunts	-11.2672
▁bombing	-11.2678
▁cleaning	-11.2681
▁touched	-11.2694
▁suffering	-11.27
did	-11.27
Drake	-11.2702
baked	-11.2703
▁AC	-11.2707
▁comp	-11.271
irport	-11.2711
ngles	-11.2718
olf	-11.2718
Judge	-11.2719
done	-11.272
▁returned	-11.2722
▁tub	-11.2728
active	-11.2751
▁Andrews	-11.2787
▁Bel	-11.2793
.........	-11.2794
▁posters	-11.2805
▁areas	-11.282
▁core	-11.2826
▁insulting	-11.2833
▁bones	-11.2834
▁Tri	-11.2843
izer	-11.2846
▁Romania	-11.2857
gate	-11.2859
▁indicate	-11.2863
standing	-11.2867
▁Ker	-11.2869
▁perm	-11.287
▁lone	-11.2873
cause	-11.2873
▁har	-11.2874
insert	-11.2876
pical	-11.2884
▁fest	-11.2916
▁edit	-11.2922
DTV	-11.2935
▁*****	-11.2949
▁dro	-11.2952
Can	-11.2952
▁Est	-11.2966
▁classical	-11.2969
▁prof	-11.2974
▁pur	-11.3003
CH	-11.3013
▁ark	-11.3026
ada	-11.3034
han	-11.3036
▁dominat	-11.3047
lum	-11.3061
destructi	-11.3062
▁fur	-11.3071
▁pit	-11.3074
▁Bur	-11.3087
▁Spo	-11.3096
hair	-11.3123
▁Carl	-11.3152
▁Fra	-11.3161
ulation	-11.3189
INE	-11.3201
▁(?)	-11.3213
AVE	-11.3222
echn	-11.3233
▁damage	-11.3291
▁Nati	-11.3293
SER	-11.3296
▁RE	-11.3334
alli	-11.3385
OUT	-11.3412
UP	-11.3429
anne	-11.3434
▁strippe	-11.3462
Sha	-11.3496
▁believ	-11.3529
phi	-11.3538
Note	-11.3542
▁hum	-11.355
THE	-11.3561
▁bite	-11.358
addy	-11.3583
eez	-11.361
▁Pan	-11.3613
relatively	-11.362
▁Kai	-11.363
rian	-11.3632
CE	-11.3636
ility	-11.364
▁Tro	-11.3661
void	-11.3677
cular	-11.3686
▁Wil	-11.3687
love	-11.3717
22	-11.3721
urry	-11.3722
▁dealer	-11.374
direct	-11.3747
▁surviv	-11.3764
▁refer	-11.3764
ool	-11.3775
worth	-11.3783
Cha	-11.3792
▁investigat	-11.3795
fortune	-11.3805
class	-11.3806
grown	-11.3808
adventure	-11.3808
3/10	-11.3808
William	-11.3809
Seagal	-11.3809
modern	-11.3809
white	-11.381
girl	-11.381
wife	-11.3811
16	-11.3811
shock	-11.3812
sigh	-11.3814
watch	-11.3814
cult	-11.3815
Rating	-11.3816
rawn	-11.3817
mark	-11.3818
End	-11.3819
human	-11.382
▁wood	-11.3822
30	-11.3823
Once	-11.3826
master	-11.3826
Still	-11.3827
▁compell	-11.3829
▁impress	-11.3834
Steve	-11.3836
blow	-11.3838
▁borrow	-11.3841
God	-11.3843
His	-11.3844
Bill	-11.3847
give	-11.3847
ographic	-11.3854
▁literal	-11.3858
actory	-11.3861
▁gimmick	-11.3864
tempted	-11.3865
▁confuse	-11.3867
▁sigh	-11.3871
▁suspens	-11.3874
▁polic	-11.3876
▁bike	-11.3878
ology	-11.3879
joy	-11.3881
fish	-11.3884
▁tall	-11.3885
▁Europe	-11.3887
hold	-11.3887
▁quest	-11.389
▁Hugh	-11.3891
Character	-11.3891
▁object	-11.3891
▁detect	-11.3891
▁formula	-11.3892
Victor	-11.3892
▁contest	-11.3892
▁financi	-11.3892
rofessional	-11.3892
▁orphan	-11.3892
▁birth	-11.3892
uzz	-11.3893
▁pleasant	-11.3893
.99	-11.3893
masochis	-11.3893
▁electric	-11.3893
▁patriot	-11.3893
Complete	-11.3893
Sebastian	-11.3893
apocalyp	-11.3893
traffic	-11.3893
uthentic	-11.3893
▁2001	-11.3893
▁2003	-11.3893
▁Bacchan	-11.3893
▁Blockbuster	-11.3893
▁Certainly	-11.3893
▁Church	-11.3893
▁Costner	-11.3893
▁Curtis	-11.3893
▁Family	-11.3893
▁Floyd	-11.3893
▁GOOD	-11.3893
▁Giovann	-11.3893
▁Gulliver	-11.3893
▁Hindi	-11.3893
▁Kronk	-11.3893
▁Kubrick	-11.3893
▁Lugosi	-11.3893
▁Malkovich	-11.3893
▁Miranda	-11.3893
▁Pontypool	-11.3893
▁Remember	-11.3893
▁Rhett	-11.3893
▁Ribisi	-11.3893
▁Schaech	-11.3893
▁Selleck	-11.3893
▁Stooges	-11.3893
▁UFO	-11.3893
▁Urmila	-11.3893
▁Vegas	-11.3893
▁Village	-11.3893
▁WITH	-11.3893
▁accompanie	-11.3893
▁advantage	-11.3893
▁assault	-11.3893
▁atmospheric	-11.3893
▁bastard	-11.3893
▁blockbuster	-11.3893
▁bucket	-11.3893
▁caricature	-11.3893
▁contradict	-11.3893
▁crisis	-11.3893
▁cynical	-11.3893
▁derivative	-11.3893
▁divorce	-11.3893
▁emphasize	-11.3893
▁engaging	-11.3893
▁executive	-11.3893
▁fodder	-11.3893
▁glimmer	-11.3893
▁grandmother	-11.3893
▁homage	-11.3893
▁illustrate	-11.3893
▁immature	-11.3893
▁importance	-11.3893
▁inconsistent	-11.3893
▁instruct	-11.3893
▁inventive	-11.3893
▁license	-11.3893
▁manipulative	-11.3893
▁metaphor	-11.3893
▁misguided	-11.3893
▁nephew	-11.3893
▁niece	-11.3893
▁nostalgic	-11.3893
▁nowadays	-11.3893
▁poignant	-11.3893
▁portrait	-11.3893
▁preparation	-11.3893
▁provocative	-11.3893
▁rambling	-11.3893
▁relentless	-11.3893
▁revolutionary	-11.3893
▁rewrite	-11.3893
▁ruthless	-11.3893
▁servant	-11.3893
▁smoking	-11.3893
▁spectrum	-11.3893
▁striking	-11.3893
▁suspicious	-11.3893
▁tactics	-11.3893
▁trilogy	-11.3893
▁university	-11.3893
▁worried	-11.3893
▁worship	-11.3893
INAL	-11.3893
provoking	-11.3893
▁Eventually	-11.3893
▁Finney	-11.3893
▁Friend	-11.3893
▁KISS	-11.3893
▁LOVE	-11.3893
▁Nightmare	-11.3893
▁Seinfeld	-11.3893
▁absence	-11.3893
▁debacle	-11.3893
▁elephant	-11.3893
▁palace	-11.3893
▁participat	-11.3893
▁premiere	-11.3893
▁psychic	-11.3893
▁psycho	-11.3893
▁scratch	-11.3893
▁sketch	-11.3893
▁skull	-11.3893
▁splatter	-11.3893
▁sustain	-11.3893
▁verbal	-11.3893
▁wheelchair	-11.3893
IGH	-11.3893
▁Doctor	-11.3893
▁Kung	-11.3893
▁Pinhead	-11.3893
▁Reeves	-11.3893
▁balloon	-11.3893
▁coffin	-11.3893
▁horny	-11.3893
▁polish	-11.3893
▁shelves	-11.3893
▁supply	-11.3893
Consider	-11.3893
▁/>2/10	-11.3893
▁Korean	-11.3893
▁distress	-11.3893
▁excess	-11.3893
▁Towers	-11.3893
▁rational	-11.3893
▁saga	-11.3893
▁edgy	-11.3893
▁mankind	-11.3893
▁Spears	-11.3893
▁Univers	-11.3893
▁distance	-11.3893
▁delve	-11.3893
▁greas	-11.3893
▁spree	-11.3893
▁trademark	-11.3893
▁Hamilton	-11.3893
▁skipping	-11.3894
!!!!!!!!!	-11.3894
-13	-11.3894
▁Conan	-11.3894
aesthetic	-11.3894
▁asylum	-11.3894
▁banal	-11.3894
▁faithful	-11.3894
▁Underdog	-11.3894
▁clone	-11.3894
▁competition	-11.3894
▁roof	-11.3894
▁global	-11.3894
▁Julian	-11.3894
▁meandering	-11.3894
▁Dusty	-11.3894
▁Gein	-11.3894
▁Hasselhoff	-11.3894
▁chips	-11.3894
▁scrap	-11.3894
ternal	-11.3894
▁comedic	-11.3894
▁preced	-11.3894
Should	-11.3894
▁install	-11.3894
▁backwards	-11.3894
▁stylized	-11.3894
▁jazz	-11.3894
Murray	-11.3894
izza	-11.3894
▁Walker	-11.3894
▁Waltz	-11.3894
▁surrender	-11.3894
▁exotic	-11.3894
▁Downey	-11.3894
▁Silly	-11.3894
▁argument	-11.3894
Wrong	-11.3894
wield	-11.3894
▁bottle	-11.3894
▁Gerda	-11.3894
faith	-11.3894
▁seventies	-11.3895
▁Baker	-11.3895
FORE	-11.3895
▁extract	-11.3895
▁eternal	-11.3895
▁possibilit	-11.3895
▁Classic	-11.3895
▁humble	-11.3895
▁pirate	-11.3895
Epic	-11.3895
▁mouse	-11.3895
▁Todd	-11.3895
▁Griffith	-11.3895
▁greed	-11.3895
▁jack	-11.3895
▁slack	-11.3895
▁stunk	-11.3895
▁detract	-11.3895
▁1930	-11.3895
▁struck	-11.3895
ranged	-11.3895
▁Leonard	-11.3895
▁River	-11.3895
▁Ruby	-11.3895
▁irresponsible	-11.3895
▁hairstyle	-11.3895
Listen	-11.3895
▁gentle	-11.3895
▁interaction	-11.3895
▁unfair	-11.3895
▁Planet	-11.3895
▁Mayall	-11.3895
Toole	-11.3895
▁Kitty	-11.3895
▁daring	-11.3896
▁Left	-11.3896
▁graduation	-11.3896
▁Crap	-11.3896
▁harmless	-11.3896
▁legendary	-11.3896
▁riff	-11.3896
▁thug	-11.3896
▁mega	-11.3896
RIP	-11.3896
▁melodramatic	-11.3896
▁psychologist	-11.3896
▁Carey	-11.3896
▁Lauren	-11.3896
▁babe	-11.3896
UCH	-11.3896
▁Mask	-11.3897
▁NAS	-11.3897
▁caption	-11.3897
▁squea	-11.3897
▁deaf	-11.3897
iCarly	-11.3897
▁Duke	-11.3897
▁collective	-11.3897
▁dropped	-11.3897
▁freedom	-11.3897
▁headache	-11.3897
▁circuit	-11.3898
▁marine	-11.3898
▁shall	-11.3898
Attack	-11.3898
▁Leland	-11.3898
▁nonexistent	-11.3898
▁mush	-11.3898
▁eighties	-11.3898
▁Carter	-11.3899
▁narrator	-11.3899
▁Prick	-11.3899
▁profit	-11.3899
▁caliber	-11.3899
Direct	-11.3899
▁quirky	-11.39
▁NASA	-11.39
drum	-11.39
▁Doug	-11.3901
▁ripoff	-11.3901
▁Bridge	-11.3901
▁Hawaii	-11.3901
▁participant	-11.3901
▁predator	-11.3902
▁masterful	-11.3902
▁employee	-11.3903
▁conviction	-11.3903
▁square	-11.3903
▁Shaw	-11.3904
▁/>3)	-11.3904
▁morality	-11.3904
▁shine	-11.3904
▁colo	-11.3904
▁cake	-11.3905
▁max	-11.3905
▁stale	-11.3905
▁whip	-11.3905
Short	-11.3905
▁campus	-11.3905
▁ego	-11.3906
▁environmental	-11.3907
▁grabb	-11.3907
▁belt	-11.3907
▁payoff	-11.3907
▁17	-11.3908
▁slob	-11.3908
▁washed	-11.3908
▁unreal	-11.391
▁friendship	-11.391
▁Fire	-11.3911
▁Annie	-11.3911
▁Full	-11.3911
▁Hello	-11.3911
▁brainless	-11.3912
▁overcome	-11.3912
▁Pull	-11.3912
▁Lance	-11.3913
▁observ	-11.3913
▁wedding	-11.3913
▁Boone	-11.3913
▁AVOID	-11.3914
▁Cleopatra	-11.3914
▁depressed	-11.3915
▁General	-11.3915
▁tasteless	-11.3916
▁28	-11.3916
▁beneath	-11.3917
▁squad	-11.3917
▁generated	-11.3917
▁Zoey	-11.3917
▁cabin	-11.3917
▁35	-11.3918
ogan	-11.3919
▁resolved	-11.3919
▁followers	-11.3919
roid	-11.392
▁Wish	-11.392
▁cock	-11.3921
▁shamelessly	-11.3922
▁outstanding	-11.3922
▁questionable	-11.3922
▁jet	-11.3924
▁consideration	-11.3924
▁porno	-11.3924
▁logical	-11.3925
▁Pick	-11.3925
▁challenged	-11.3926
▁filthy	-11.3926
▁tv	-11.3926
col	-11.3926
prepare	-11.3927
▁initially	-11.3928
▁VIVIAN	-11.3928
▁Vacation	-11.3928
▁cheek	-11.3928
▁Stop	-11.393
▁pic	-11.3932
▁mish	-11.3933
▁Dien	-11.3933
▁Pass	-11.3935
▁dust	-11.3935
▁Meg	-11.3937
▁Road	-11.3938
blaz	-11.3938
▁gifted	-11.394
▁cookie	-11.3941
▁Heather	-11.3942
▁Naturally	-11.3943
▁amusement	-11.3945
▁lifetime	-11.3945
▁sucker	-11.3948
▁Uh	-11.3949
▁cursed	-11.395
Cas	-11.395
▁Mess	-11.3953
▁merc	-11.3954
▁Clear	-11.3956
▁Scream	-11.3956
▁critters	-11.396
▁preachy	-11.396
var	-11.3965
ubert	-11.3967
▁Myers	-11.3967
▁Penn	-11.3967
▁alas	-11.3968
Forsyth	-11.3969
▁threatening	-11.397
▁bail	-11.397
▁wire	-11.3972
verly	-11.3973
▁explored	-11.3977
▁cliched	-11.3978
▁currently	-11.3978
▁trop	-11.3983
▁physically	-11.3984
▁Jay	-11.3984
▁PC	-11.3987
▁fate	-11.3991
▁ripping	-11.3993
▁manager	-11.3995
▁funding	-11.3995
▁Mode	-11.3996
▁connected	-11.3999
▁Buck	-11.4002
▁reverse	-11.4002
card	-11.4007
▁Sir	-11.4016
HO	-11.4017
▁Rating	-11.4018
▁bumbl	-11.4024
▁disappearing	-11.4024
▁honesty	-11.4031
uous	-11.4031
ewarm	-11.4033
▁Bam	-11.4035
▁Kent	-11.4039
aying	-11.4039
ille	-11.404
▁belly	-11.404
▁burned	-11.4043
▁survived	-11.4047
vort	-11.4056
▁Carly	-11.4059
!!)	-11.4063
azz	-11.4065
▁magical	-11.407
rmored	-11.407
▁Soon	-11.4071
umor	-11.4072
▁reasonable	-11.4084
▁bon	-11.4087
▁surrealis	-11.4101
▁Zed	-11.4111
▁kicked	-11.4116
▁amazingly	-11.4118
▁centered	-11.412
▁mir	-11.4126
DJ	-11.4135
▁SEE	-11.4138
▁Mom	-11.414
beat	-11.4142
Rita	-11.4145
▁Raf	-11.415
▁jumping	-11.4162
lex	-11.4167
RED	-11.4173
▁Air	-11.4187
▁strangely	-11.4189
▁dive	-11.419
▁blo	-11.4191
▁wipe	-11.4201
▁democratic	-11.4203
▁Joann	-11.4206
▁Hat	-11.4226
▁sincere	-11.4231
Plot	-11.4232
▁Dun	-11.4243
▁pipe	-11.4249
HING	-11.4256
AND	-11.4267
maker	-11.4293
Silv	-11.4311
!")	-11.4316
▁Dam	-11.4359
Mr	-11.4397
Cop	-11.4415
rich	-11.4419
▁awaken	-11.442
▁Vo	-11.4461
EP	-11.4475
▁Mob	-11.4484
▁tense	-11.4485
rin	-11.4487
strict	-11.449
▁thru	-11.451
▁Ye	-11.4514
▁Lea	-11.4522
▁sue	-11.4522
▁Gil	-11.4523
hank	-11.4526
nnie	-11.4534
▁Ze	-11.4534
arious	-11.4545
1984	-11.4561
▁sooo	-11.4566
▁locate	-11.4567
▁iron	-11.459
▁coast	-11.4597
nant	-11.4617
lmost	-11.4636
esque	-11.4644
▁sadde	-11.4649
posing	-11.4664
▁Oliv	-11.4666
omi	-11.4679
40	-11.4698
▁span	-11.4707
Dragon	-11.4711
▁Kat	-11.4714
water	-11.4724
really	-11.4732
mont	-11.4738
▁Maria	-11.4749
acked	-11.4766
ellow	-11.4772
▁glar	-11.4777
ifying	-11.4814
Hav	-11.4818
▁tap	-11.489
▁villa	-11.4891
▁Berg	-11.4925
▁Burr	-11.4934
▁nerd	-11.4941
reaches	-11.4947
▁Rod	-11.4955
▁fist	-11.4974
▁GO	-11.4994
▁tie	-11.5014
▁size	-11.5033
▁indicat	-11.5035
▁tw	-11.5036
atory	-11.5044
▁assum	-11.5055
ckey	-11.5075
▁Bette	-11.5101
minate	-11.5111
acial	-11.5126
defined	-11.5134
ludge	-11.5142
blin	-11.5147
ough	-11.5171
stitute	-11.5179
▁cla	-11.5183
Ri	-11.5199
Fall	-11.5206
▁ev	-11.5211
▁Set	-11.5223
▁Bren	-11.5254
onia	-11.5255
nja	-11.5265
bound	-11.5281
▁whi	-11.5282
▁stunt	-11.5284
▁relation	-11.5286
▁thread	-11.5288
▁Brother	-11.5292
▁Nazi	-11.5295
▁State	-11.5307
▁folk	-11.5322
▁Sho	-11.5347
▁explode	-11.5363
GE	-11.5365
▁armor	-11.5386
Ali	-11.5413
▁explor	-11.5423
▁slip	-11.5431
▁statu	-11.5434
iction	-11.5446
here	-11.5448
known	-11.5449
camp	-11.5464
telling	-11.5465
▁Swee	-11.5467
Granted	-11.5469
know	-11.547
script	-11.5472
dimensional	-11.5473
paced	-11.5473
Home	-11.5473
normal	-11.5474
Worst	-11.5474
Yeah	-11.5474
Death	-11.5475
Poor	-11.5475
Story	-11.5475
effect	-11.5475
developed	-11.5475
More	-11.5476
happy	-11.5476
Scott	-11.5476
particularly	-11.5476
David	-11.5476
complete	-11.5477
remember	-11.5477
character	-11.5477
half	-11.5477
Glen	-11.5477
something	-11.5477
Qui	-11.5477
lord	-11.5477
60	-11.5478
important	-11.5479
Christian	-11.548
despi	-11.5481
Buck	-11.5481
Young	-11.5481
Friday	-11.5482
Like	-11.5482
found	-11.5488
music	-11.5494
before	-11.5495
camera	-11.5497
*1/2	-11.55
▁gift	-11.5507
sandra	-11.5512
▁(196	-11.5512
Give	-11.5513
▁intend	-11.5514
▁simpl	-11.5514
realistic	-11.5519
▁initial	-11.552
▁mild	-11.5521
▁Israel	-11.5527
▁smil	-11.5528
Did	-11.5528
▁crop	-11.5531
▁Zoe	-11.5532
▁generate	-11.5532
▁slash	-11.5532
▁remove	-11.5533
▁cab	-11.5535
▁Whe	-11.5537
Sure	-11.5537
▁mediocr	-11.554
evolved	-11.5542
directed	-11.5542
▁Lind	-11.5551
▁volcano	-11.5552
▁terrifi	-11.5552
▁careful	-11.5554
hupacabra	-11.5554
▁capital	-11.5555
▁Hal	-11.5555
▁comfort	-11.5555
▁nausea	-11.5556
▁transform	-11.5558
razy	-11.5559
▁circu	-11.5559
▁utili	-11.5559
▁Euro	-11.5559
graph	-11.5559
▁border	-11.5559
▁monk	-11.5559
▁identi	-11.5559
ubbed	-11.556
▁trade	-11.556
wich	-11.556
▁Clooney	-11.556
▁DOWN	-11.556
▁verdict	-11.556
ASTRID	-11.556
Admittedly	-11.556
Amitabh	-11.556
Psycho	-11.556
Ultimately	-11.556
conceivabl	-11.556
ctivities	-11.556
ravolta	-11.556
rchitect	-11.556
sufficient	-11.556
▁1979	-11.556
▁2005	-11.556
▁Absolute	-11.556
▁Almighty	-11.556
▁Basterds	-11.556
▁Bihn	-11.556
▁Broadway	-11.556
▁Buscemi	-11.556
▁CRAP	-11.556
▁Carpenter	-11.556
▁Catholic	-11.556
▁Central	-11.556
▁Chopper	-11.556
▁Connell	-11.556
▁Coppola	-11.556
▁Duvall	-11.556
▁Dwire	-11.556
▁Exorcist	-11.556
▁Fabian	-11.556
▁Faye	-11.556
▁Frontier	-11.556
▁HOLOCAUST	-11.556
▁HORRIBLE	-11.556
▁HORROR	-11.556
▁Hepburn	-11.556
▁Hospital	-11.556
▁Imperium	-11.556
▁Jamaica	-11.556
▁Jeunet	-11.556
▁Jungle	-11.556
▁Krasinski	-11.556
▁Lambs	-11.556
▁Madonna	-11.556
▁Minghella	-11.556
▁Mitchell	-11.556
▁Mitchum	-11.556
▁Mountain	-11.556
▁Muslims	-11.556
▁Natalie	-11.556
▁OVER	-11.556
▁Peebles	-11.556
▁Phantom	-11.556
▁QUINTET	-11.556
▁Reynolds	-11.556
▁Scarecrow	-11.556
▁Shannon	-11.556
▁Sinister	-11.556
▁Stanwyck	-11.556
▁TIME	-11.556
▁Virgin	-11.556
▁Voight	-11.556
▁WRONG	-11.556
▁Warriors	-11.556
▁abilities	-11.556
▁absorb	-11.556
▁ambitious	-11.556
▁ammunition	-11.556
▁antagonist	-11.556
▁approve	-11.556
▁arrogant	-11.556
▁attribute	-11.556
▁bargain	-11.556
▁biography	-11.556
▁bounty	-11.556
▁brunette	-11.556
▁compliment	-11.556
▁condemn	-11.556
▁confiden	-11.556
▁contribution	-11.556
▁counsel	-11.556
▁courage	-11.556
▁endeavor	-11.556
▁enemies	-11.556
▁eternity	-11.556
▁expedition	-11.556
▁fathom	-11.556
▁groundbreaking	-11.556
▁horrific	-11.556
▁hypocri	-11.556
▁increase	-11.556
▁intersperse	-11.556
▁intricate	-11.556
▁lackluster	-11.556
▁legitimate	-11.556
▁lunatic	-11.556
▁manipulate	-11.556
▁misleading	-11.556
▁murky	-11.556
▁muscle	-11.556
▁museum	-11.556
▁overbearing	-11.556
▁pearls	-11.556
▁principle	-11.556
▁publishe	-11.556
▁puke	-11.556
▁redundant	-11.556
▁repellent	-11.556
▁repulsive	-11.556
▁resolution	-11.556
▁response	-11.556
▁retrieve	-11.556
▁significance	-11.556
▁squirm	-11.556
▁stooge	-11.556
▁suspicion	-11.556
▁tribute	-11.556
▁unexciting	-11.556
▁unlikable	-11.556
▁untalented	-11.556
▁violin	-11.556
▁wagon	-11.556
articulate	-11.556
▁Amazing	-11.556
▁Columbia	-11.556
▁Dresden	-11.556
▁Edgar	-11.556
▁Light	-11.556
▁Pathetic	-11.556
▁Simple	-11.556
▁Spielberg	-11.556
▁WHAT	-11.556
▁athletic	-11.556
▁chapter	-11.556
▁client	-11.556
▁enlist	-11.556
▁grainy	-11.556
▁grasp	-11.556
▁imaginary	-11.556
▁minimum	-11.556
▁overblown	-11.556
▁poison	-11.556
▁steady	-11.556
▁throat	-11.556
▁wacky	-11.556
▁woeful	-11.556
▁/>4/10	-11.556
▁CKY	-11.556
▁credible	-11.556
▁crook	-11.556
▁filter	-11.556
▁mistress	-11.556
▁rampage	-11.556
▁recip	-11.556
▁refresh	-11.556
▁reserve	-11.556
▁revive	-11.556
▁enemy	-11.556
▁macho	-11.556
▁rhythm	-11.556
▁sample	-11.556
▁snapp	-11.556
▁Jacob	-11.556
▁Kersey	-11.556
▁WWI	-11.556
▁Welch	-11.556
▁deleted	-11.556
▁jaded	-11.556
▁jumble	-11.556
▁princess	-11.556
▁scheme	-11.556
▁telephone	-11.556
▁uncover	-11.556
▁whisper	-11.556
OTHER	-11.556
▁admittedly	-11.556
▁contend	-11.556
▁invented	-11.556
▁Carrot	-11.556
▁Emma	-11.556
▁Shepard	-11.556
▁contact	-11.556
▁wicked	-11.556
▁Marquis	-11.556
▁Diana	-11.556
▁Snake	-11.556
ICK	-11.556
▁garden	-11.556
▁spider	-11.556
▁warrant	-11.556
▁Count	-11.556
▁DID	-11.556
▁Fanny	-11.556
▁kindergarten	-11.556
▁Weird	-11.556
▁burst	-11.556
▁inherent	-11.556
▁terminal	-11.556
▁churn	-11.556
▁protest	-11.556
▁voting	-11.556
▁believability	-11.556
▁contri	-11.556
▁Ninja	-11.556
▁Series	-11.556
▁injure	-11.556
▁crows	-11.556
▁interminabl	-11.556
▁Windsor	-11.556
▁Ameche	-11.556
Normally	-11.556
0.5	-11.556
▁Steel	-11.556
▁derive	-11.556
▁impal	-11.556
▁Hulk	-11.556
▁grandfather	-11.556
olitical	-11.556
ommission	-11.5561
▁shining	-11.5561
hapless	-11.5561
▁chocolate	-11.5561
▁dopey	-11.5561
lovable	-11.5561
▁informative	-11.5561
Julia	-11.5561
▁offense	-11.5561
▁abrupt	-11.5561
▁Court	-11.5561
▁sneak	-11.5561
▁swimming	-11.5561
▁habit	-11.5561
pastiche	-11.5561
▁Kirk	-11.5561
LOL	-11.5561
▁Shining	-11.5561
▁THREA	-11.5561
▁Marshall	-11.5561
▁:-)	-11.5561
▁bleak	-11.5561
▁whining	-11.5561
▁Annette	-11.5561
Sixth	-11.5561
▁borderline	-11.5561
▁Leigh	-11.5561
▁exploitative	-11.5561
▁fanatic	-11.5561
▁padding	-11.5561
▁task	-11.5561
Menace	-11.5561
▁Compare	-11.5561
▁Hamill	-11.5561
▁awry	-11.5561
▁savage	-11.5561
▁Thankfully	-11.5561
venue	-11.5561
▁fuzz	-11.5562
▁utilize	-11.5562
▁orphanage	-11.5562
▁promote	-11.5562
▁subtly	-11.5562
▁faint	-11.5562
Freak	-11.5562
▁Lisa	-11.5562
▁$10	-11.5562
▁gunfight	-11.5562
▁SciFi	-11.5562
▁Cinemax	-11.5562
Utterly	-11.5562
▁glass	-11.5562
▁species	-11.5562
▁minister	-11.5562
▁Robinson	-11.5562
▁riddle	-11.5562
▁unimaginative	-11.5562
▁hungry	-11.5562
▁breed	-11.5562
▁buzz	-11.5563
▁observation	-11.5563
▁criticism	-11.5563
▁Definitely	-11.5563
▁hunk	-11.5563
▁defend	-11.5563
▁gull	-11.5563
▁captivat	-11.5563
▁option	-11.5563
▁email	-11.5563
▁uber	-11.5563
▁improvement	-11.5563
▁pump	-11.5564
▁Grandm	-11.5564
▁companion	-11.5564
▁Spock	-11.5564
▁progressive	-11.5564
▁Vince	-11.5564
▁nauseating	-11.5564
▁Ferri	-11.5564
▁Alice	-11.5564
▁fluff	-11.5564
▁Everybody	-11.5564
▁route	-11.5564
▁lump	-11.5564
▁shoes	-11.5565
enchant	-11.5565
▁limb	-11.5565
ounce	-11.5565
▁Grace	-11.5565
▁alcoholic	-11.5565
▁#1	-11.5565
▁"1"	-11.5565
▁Somehow	-11.5565
▁achievement	-11.5565
▁YOUR	-11.5565
OUR	-11.5566
Title	-11.5566
▁Year	-11.5566
▁shove	-11.5566
▁snowman	-11.5567
▁label	-11.5567
▁shotgun	-11.5567
▁chess	-11.5567
▁indication	-11.5567
▁Josh	-11.5567
▁colorful	-11.5567
▁neat	-11.5567
▁Room	-11.5567
▁grant	-11.5567
▁Pete	-11.5568
▁investigation	-11.5568
▁operation	-11.5568
▁Chick	-11.5568
▁glasses	-11.5568
▁menace	-11.5568
▁tug	-11.5569
▁whine	-11.5569
▁Mama	-11.5569
▁Code	-11.5569
▁investigator	-11.5569
▁GABRIEL	-11.5569
▁Professor	-11.5569
▁temple	-11.557
▁tax	-11.557
force	-11.557
▁Rich	-11.557
▁lifestyle	-11.5571
▁revel	-11.5571
▁Judas	-11.5571
▁overdone	-11.5572
ajor	-11.5573
▁Mame	-11.5573
▁Salva	-11.5574
▁hail	-11.5574
▁bush	-11.5574
dato	-11.5575
▁Color	-11.5575
▁standout	-11.5575
▁infected	-11.5575
▁apolog	-11.5576
▁plod	-11.5576
▁Monk	-11.5576
▁proto	-11.5578
▁tail	-11.5578
▁suspenseful	-11.5578
▁wings	-11.5578
Enough	-11.5579
▁owe	-11.5579
Yes	-11.5579
▁nearby	-11.5579
▁Lake	-11.558
▁package	-11.558
▁assist	-11.5581
▁1000	-11.5581
▁Low	-11.5581
▁Follow	-11.5582
▁Rene	-11.5582
▁overlong	-11.5583
Ugly	-11.5583
▁east	-11.5583
▁42	-11.5583
▁FOR	-11.5583
▁witches	-11.5583
▁Drew	-11.5583
▁Soap	-11.5584
▁1998	-11.5584
▁Atlantis	-11.5585
▁Dorothy	-11.5585
▁Furthermore	-11.5585
▁Shadow	-11.5585
▁Crosby	-11.5585
▁overlook	-11.5586
▁info	-11.5586
Greg	-11.5588
▁Lowe	-11.5588
▁Box	-11.5588
▁Gere	-11.559
▁Erica	-11.5591
▁humiliating	-11.5591
▁Louis	-11.5591
▁stretches	-11.5591
▁uneven	-11.5592
▁Hence	-11.5592
▁Rings	-11.5593
▁/>4.	-11.5594
▁Sex	-11.5594
▁harm	-11.5595
▁snor	-11.5597
▁spic	-11.5598
▁Him	-11.5598
▁-1	-11.5599
▁Fast	-11.5599
▁demo	-11.5599
▁Stark	-11.56
▁Bela	-11.5601
▁undercover	-11.5602
▁numbing	-11.5602
▁LOT	-11.5602
their	-11.5603
▁Real	-11.5603
▁dire	-11.5604
▁Mayan	-11.5604
▁coat	-11.5604
▁expense	-11.5604
▁arouse	-11.5605
▁Bug	-11.5607
never	-11.5608
ACE	-11.5608
▁heroin	-11.5608
▁Fine	-11.561
▁carefully	-11.5611
▁lonely	-11.5614
▁behold	-11.5614
▁hooker	-11.5615
▁locker	-11.5618
▁inducing	-11.5618
▁accused	-11.5619
▁Hopefully	-11.5619
▁Dave	-11.5621
▁Von	-11.5622
▁2000	-11.5624
▁combined	-11.5624
▁Macy	-11.5626
▁/>2.	-11.5628
▁helpless	-11.5628
▁scarie	-11.5628
▁bump	-11.5631
▁freaky	-11.5631
▁Bottom	-11.5635
Find	-11.5636
▁Mur	-11.5636
▁disease	-11.5637
▁squa	-11.5639
▁setup	-11.564
▁lingeri	-11.5641
▁mill	-11.5645
▁appropriately	-11.5646
ERM	-11.5648
▁Gore	-11.5649
nimal	-11.565
▁divers	-11.565
▁badass	-11.5655
▁weep	-11.5655
▁refused	-11.5656
▁flower	-11.5656
▁awfulness	-11.5662
▁Shot	-11.5663
▁legal	-11.5665
▁sav	-11.5666
▁Back	-11.5668
olu	-11.5669
▁prob	-11.567
▁Seem	-11.5678
▁Age	-11.5678
▁Jan	-11.5679
▁summ	-11.568
▁farce	-11.5681
VEN	-11.5681
▁gather	-11.5683
▁booz	-11.5688
liver	-11.5694
▁anytime	-11.5694
▁Sweet	-11.5697
Bob	-11.5697
▁boost	-11.5701
▁Gay	-11.5701
▁tick	-11.5702
▁hunter	-11.5704
▁lifeless	-11.5705
Catch	-11.5708
ENT	-11.5708
Foot	-11.5708
▁Gro	-11.5709
▁correctly	-11.5709
▁dancer	-11.5714
spread	-11.5715
▁castle	-11.5725
▁discovery	-11.5731
▁Granted	-11.5738
rift	-11.574
▁greatness	-11.574
bald	-11.5745
Cheat	-11.5752
▁endure	-11.5764
▁goat	-11.5769
▁lying	-11.5778
enjoyment	-11.5781
Freddy	-11.5804
poetic	-11.5827
tract	-11.5833
▁flipp	-11.5844
▁Kath	-11.5844
▁juic	-11.5847
▁grip	-11.5863
▁weary	-11.587
onald	-11.5891
▁dil	-11.5907
rising	-11.5913
Rex	-11.5922
▁Lev	-11.5937
eased	-11.5939
OST	-11.5942
▁Gues	-11.5942
▁Pam	-11.5963
road	-11.5977
Rocket	-11.6021
▁shad	-11.6053
▁$50	-11.6058
affe	-11.6068
mind	-11.607
ORE	-11.608
aunt	-11.609
▁Core	-11.6091
▁Nam	-11.6111
▁FL	-11.6123
rect	-11.6127
new	-11.6135
▁compet	-11.6142
hapel	-11.6159
mill	-11.6168
▁mum	-11.617
▁Kenn	-11.619
ella	-11.6241
thical	-11.6253
******	-11.6296
Harrison	-11.6301
fend	-11.6303
▁Medi	-11.6309
uate	-11.6328
Ruth	-11.6335
phenomenal	-11.6339
hark	-11.6385
civiliz	-11.6387
▁mai	-11.639
▁Cel	-11.6435
vid	-11.6439
▁Ul	-11.6455
ramp	-11.6469
▁grind	-11.6539
RAN	-11.6544
▁Christi	-11.6554
Each	-11.6557
▁repress	-11.6562
corporate	-11.6571
JO	-11.6574
▁Stra	-11.6591
▁nine	-11.6596
▁Had	-11.6602
▁Pola	-11.6604
Myster	-11.663
lop	-11.665
steps	-11.6663
Eye	-11.6678
▁HU	-11.6685
Manson	-11.6747
civil	-11.6764
▁controll	-11.6768
▁dish	-11.6826
▁compete	-11.6893
▁Kar	-11.6922
****	-11.6931
either	-11.6933
ario	-11.6933
REN	-11.6941
▁FR	-11.6943
ular	-11.6945
▁poo	-11.7005
orrow	-11.7045
▁Serv	-11.7149
▁educat	-11.7153
Doo	-11.7153
quel	-11.7163
ckle	-11.7171
will	-11.7238
adulter	-11.7258
gator	-11.7265
▁Pop	-11.7284
laced	-11.7287
▁wrap	-11.7288
▁Brook	-11.7288
semble	-11.7303
Leo	-11.7305
▁sport	-11.7309
▁alienat	-11.7336
▁expectation	-11.7342
cluded	-11.7369
▁bum	-11.7374
▁rever	-11.7391
▁(197	-11.7404
idney	-11.7406
▁spec	-11.7421
ivil	-11.7433
Final	-11.7435
▁specific	-11.7444
heart	-11.7469
Bottom	-11.747
Scream	-11.7471
eight	-11.7471
Grade	-11.7473
Dark	-11.7473
Music	-11.7473
connect	-11.7474
yawn	-11.7474
sweet	-11.7474
Christophe	-11.7474
frame	-11.7474
respect	-11.7475
Sorry	-11.7475
Awful	-11.7475
Okay	-11.7475
father	-11.7475
phone	-11.7475
People	-11.7476
Chuck	-11.7476
emotional	-11.7476
original	-11.7476
produced	-11.7476
Instead	-11.7476
true	-11.7476
doubt	-11.7477
everything	-11.7477
Day	-11.7477
both	-11.7477
sexual	-11.7477
Hollywood	-11.7477
street	-11.7477
great	-11.7477
Frank	-11.7477
million	-11.748
Dead	-11.748
Very	-11.748
please	-11.7481
Cool	-11.7481
funny	-11.7481
scary	-11.7481
personal	-11.7482
Back	-11.7484
through	-11.7484
shift	-11.7484
match	-11.7485
comment	-11.7486
different	-11.7486
serious	-11.7487
weak	-11.7487
Kill	-11.7487
level	-11.7489
Strange	-11.7493
free	-11.7493
small	-11.7493
▁wig	-11.7497
▁disturb	-11.7498
▁mug	-11.7499
cool	-11.7499
▁battl	-11.75
Save	-11.7502
left	-11.7504
Get	-11.7505
Nick	-11.7508
▁stereotypic	-11.7508
woman	-11.7509
▁194	-11.7509
▁tradition	-11.7511
Law	-11.7511
kick	-11.7517
▁Natural	-11.752
▁definite	-11.7522
▁thankful	-11.7524
almost	-11.7524
▁dang	-11.7527
arried	-11.753
▁engage	-11.7531
▁resolve	-11.7532
▁guilt	-11.7533
▁expose	-11.7534
▁studi	-11.754
strid	-11.7541
▁packag	-11.7541
▁Latin	-11.7546
▁narrat	-11.7548
▁impersonat	-11.7551
▁shameless	-11.7552
▁sentiment	-11.7552
▁profession	-11.7552
▁convention	-11.7553
aki	-11.7554
▁explosi	-11.7554
sibility	-11.7555
azza	-11.7556
▁Abb	-11.7557
Krist	-11.7557
▁journal	-11.7557
ELL	-11.7557
traight	-11.7558
irthday	-11.7558
COM	-11.7558
▁Aust	-11.7558
utta	-11.7558
▁wolf	-11.7559
rilliant	-11.7559
>	-11.7559
▁document	-11.7559
▁favour	-11.7559
▁Down	-11.7559
▁champion	-11.7559
▁unsatisf	-11.756
▁effe	-11.756
ccess	-11.756
▁Keith	-11.756
▁accuracy	-11.756
▁immense	-11.756
▁leisure	-11.756
▁trauma	-11.756
Cannibal	-11.756
Chappelle	-11.756
Cheerleader	-11.756
STUPID	-11.756
Sullivan	-11.756
Supposedly	-11.756
consistencies	-11.756
ghetto	-11.756
paraphrase	-11.756
philosoph	-11.756
politician	-11.756
sarcasm	-11.756
sensitive	-11.756
tegrity	-11.756
{	-11.756
~	-11.756
▁1990	-11.756
▁Affleck	-11.756
▁Algiers	-11.756
▁Arquette	-11.756
▁Arvidson	-11.756
▁Boulder	-11.756
▁Camera	-11.756
▁Cellular	-11.756
▁Century	-11.756
▁Chaplin	-11.756
▁Costello	-11.756
▁Crisp	-11.756
▁Dakota	-11.756
▁Dhawan	-11.756
▁Eckhart	-11.756
▁Enterprise	-11.756
▁FEROX	-11.756
▁FFVII	-11.756
▁FILM	-11.756
▁Garbage	-11.756
▁Hannah	-11.756
▁Jordan	-11.756
▁Kasparov	-11.756
▁Kutcher	-11.756
▁Kuzco	-11.756
▁Latifah	-11.756
▁Mathilde	-11.756
▁McMurtry	-11.756
▁Mississippi	-11.756
▁Montgomery	-11.756
▁Muppet	-11.756
▁Othello	-11.756
▁PLEASE	-11.756
▁Pittsburgh	-11.756
▁Plummer	-11.756
▁Puppet	-11.756
▁Python	-11.756
▁Sarandon	-11.756
▁Scarlett	-11.756
▁Slayer	-11.756
▁Splatter	-11.756
▁Sturges	-11.756
▁Summer	-11.756
▁Sydow	-11.756
▁Tamblyn	-11.756
▁Tanzania	-11.756
▁Tenchi	-11.756
▁Thunder	-11.756
▁Usually	-11.756
▁Yzma	-11.756
▁Zucco	-11.756
▁abomination	-11.756
▁abusive	-11.756
▁acknowledg	-11.756
▁admission	-11.756
▁ambiguity	-11.756
▁applaud	-11.756
▁applied	-11.756
▁arbitrar	-11.756
▁attachment	-11.756
▁autopsy	-11.756
▁babbling	-11.756
▁babies	-11.756
▁ceiling	-11.756
▁celebrity	-11.756
▁chauffeur	-11.756
▁cloud	-11.756
▁clutch	-11.756
▁collapse	-11.756
▁compensate	-11.756
▁completists	-11.756
▁conservative	-11.756
▁controversy	-11.756
▁custom	-11.756
▁decency	-11.756
▁delusion	-11.756
▁denied	-11.756
▁dimensions	-11.756
▁disprove	-11.756
▁distributor	-11.756
▁eccentric	-11.756
▁fabulous	-11.756
▁floozy	-11.756
▁frozen	-11.756
▁graduate	-11.756
▁guerrilla	-11.756
▁housekeeper	-11.756
▁hysteria	-11.756
▁impregna	-11.756
▁innuendo	-11.756
▁insufferabl	-11.756
▁morbid	-11.756
▁neurotic	-11.756
▁nipples	-11.756
▁nostalgia	-11.756
▁opportunities	-11.756
▁paranoid	-11.756
▁pedestrian	-11.756
▁perpetua	-11.756
▁pornography	-11.756
▁preposterous	-11.756
▁redemption	-11.756
▁redneck	-11.756
▁responsibilit	-11.756
▁resurrect	-11.756
▁sarcastic	-11.756
▁satisfied	-11.756
▁schlock	-11.756
▁sensational	-11.756
▁sibling	-11.756
▁spectator	-11.756
▁squeeze	-11.756
▁submarine	-11.756
▁transfusion	-11.756
▁trivia	-11.756
▁turgid	-11.756
▁unaware	-11.756
▁uncanny	-11.756
▁uncomfortabl	-11.756
▁understatement	-11.756
▁unexplain	-11.756
▁unnatural	-11.756
▁unsettling	-11.756
▁unsuccessful	-11.756
▁valiant	-11.756
▁vapid	-11.756
▁vessel	-11.756
▁vigilante	-11.756
▁volume	-11.756
▁voyage	-11.756
▁yesterday	-11.756
Apocalypse	-11.756
Recommend	-11.756
▁Arabia	-11.756
▁Bregna	-11.756
▁Continu	-11.756
▁Corbin	-11.756
▁DEAD	-11.756
▁Destination	-11.756
▁Donovan	-11.756
▁Giallo	-11.756
▁Rachel	-11.756
▁Rambo	-11.756
▁Return	-11.756
▁Rhys	-11.756
▁Spider	-11.756
▁Spirit	-11.756
▁acquire	-11.756
▁acquit	-11.756
▁bikini	-11.756
▁cheerlead	-11.756
▁dizzy	-11.756
▁emphasis	-11.756
▁firefighter	-11.756
▁goddess	-11.756
▁launch	-11.756
▁octopus	-11.756
▁pretense	-11.756
▁recreate	-11.756
▁revolt	-11.756
▁salvag	-11.756
▁scramble	-11.756
▁snooze	-11.756
▁testicle	-11.756
▁translation	-11.756
▁trump	-11.756
▁1/3	-11.756
▁Lassie	-11.756
▁Women	-11.756
▁attorney	-11.756
▁censor	-11.756
▁crippl	-11.756
▁dictat	-11.756
▁literature	-11.756
▁masquerad	-11.756
▁regain	-11.756
Hatchet	-11.756
▁Chong	-11.756
▁Floren	-11.756
▁Sandler	-11.756
▁Solter	-11.756
▁capturing	-11.756
▁contribute	-11.756
▁deteriorat	-11.756
▁imaginable	-11.756
▁league	-11.756
▁leather	-11.756
▁nomination	-11.756
▁seductive	-11.756
▁shrink	-11.756
▁throne	-11.756
mplications	-11.756
▁Crime	-11.756
▁cheesi	-11.756
▁diploma	-11.756
▁fisherman	-11.756
▁request	-11.756
▁sharp	-11.756
▁stream	-11.756
interpret	-11.756
▁Direction	-11.756
▁Million	-11.756
▁collar	-11.756
▁fraud	-11.756
▁roast	-11.756
banana	-11.756
▁Breslin	-11.756
▁Club	-11.756
▁Woman	-11.756
▁bleeding	-11.756
▁glossy	-11.756
▁qualifie	-11.756
Lolita	-11.756
▁Hmmm	-11.756
▁Nolte	-11.756
▁conscience	-11.756
Connor	-11.756
▁Emmy	-11.756
▁SOME	-11.756
▁EAT	-11.756
▁Russo	-11.756
▁absent	-11.756
▁inhabitants	-11.756
▁Impact	-11.756
▁Thanksgiving	-11.756
GIRL	-11.756
▁Butchers	-11.756
ION	-11.756
Revenge	-11.756
sponsor	-11.756
▁bulk	-11.756
▁comprise	-11.756
Brazil	-11.756
▁HUGE	-11.756
▁ploy	-11.756
▁destin	-11.756
▁dismay	-11.756
▁smuggl	-11.756
▁uplift	-11.756
▁Mendes	-11.756
LESS	-11.756
▁Preston	-11.756
▁region	-11.756
▁coincidence	-11.756
Kilmer	-11.756
▁loyal	-11.756
▁grunt	-11.756
▁Face	-11.756
▁mannerisms	-11.756
▁Power	-11.756
▁abundan	-11.756
▁grieving	-11.756
▁magnificent	-11.756
▁simultaneously	-11.756
▁perversion	-11.756
▁Sica	-11.756
▁Tennant	-11.756
▁brown	-11.756
▁maintain	-11.756
▁reruns	-11.756
▁titillat	-11.756
▁Britney	-11.756
▁Madsen	-11.756
▁conducted	-11.756
▁limitations	-11.756
Jacque	-11.756
▁Farrell	-11.756
▁scoring	-11.756
▁Indeed	-11.7561
skirt	-11.7561
▁cowboy	-11.7561
▁manifest	-11.7561
INAT	-11.7561
▁possesses	-11.7561
▁link	-11.7561
▁liberat	-11.7561
▁blackmail	-11.7561
▁CSI	-11.7561
▁contrary	-11.7561
▁resign	-11.7561
▁Alfre	-11.7561
▁tolerable	-11.7561
▁gym	-11.7561
calculat	-11.7561
▁calm	-11.7561
▁spreading	-11.7561
▁Feel	-11.7561
▁Anthara	-11.7561
▁Flat	-11.7561
eekend	-11.7561
▁Calm	-11.7561
lusive	-11.7561
▁Diaz	-11.7561
▁tendenc	-11.7561
▁exposition	-11.7561
▁McDonald	-11.7561
▁paranormal	-11.7561
▁scatter	-11.7561
▁streak	-11.7561
▁favourite	-11.7561
othy	-11.7561
▁contract	-11.7561
▁COP	-11.7561
▁Navy	-11.7561
▁Must	-11.7561
▁splash	-11.7561
▁marvelous	-11.7561
▁disrespect	-11.7561
▁sanity	-11.7561
▁wore	-11.7561
▁Burning	-11.7561
▁anime	-11.7561
▁Hatcher	-11.7561
▁Barker	-11.7562
array	-11.7562
▁Coolio	-11.7562
▁Stuey	-11.7562
▁LAME	-11.7562
▁Nathan	-11.7562
▁Theatre	-11.7562
▁bloated	-11.7562
▁interrupt	-11.7562
▁ponderous	-11.7562
▁orange	-11.7562
▁Venus	-11.7562
▁Luke	-11.7562
▁bitten	-11.7562
▁wildlife	-11.7562
▁Blondie	-11.7562
▁lunch	-11.7562
▁kidnapped	-11.7562
▁slave	-11.7562
▁tramp	-11.7562
▁tweak	-11.7562
▁jogg	-11.7562
▁stoop	-11.7562
▁snail	-11.7563
▁HELL	-11.7563
▁Victoria	-11.7563
▁Thumb	-11.7563
▁fireplace	-11.7563
▁paycheck	-11.7563
▁household	-11.7563
▁deny	-11.7563
▁snuff	-11.7563
▁Zeus	-11.7563
▁Martha	-11.7563
▁extraordinary	-11.7563
▁firing	-11.7563
▁rivalry	-11.7563
▁Demons	-11.7563
▁Jolie	-11.7563
▁Carver	-11.7563
▁daily	-11.7563
▁Know	-11.7563
▁keen	-11.7563
aaaaa	-11.7563
▁Bynes	-11.7563
▁Around	-11.7563
▁crass	-11.7563
▁underwater	-11.7563
▁foul	-11.7563
▁Tele	-11.7563
Monday	-11.7563
▁depression	-11.7563
spiring	-11.7564
▁birthday	-11.7564
▁acceptance	-11.7564
▁Surveillance	-11.7564
▁Woodrow	-11.7564
▁Spoilers	-11.7564
▁Carmen	-11.7564
▁grating	-11.7564
▁Kong	-11.7564
▁Patton	-11.7564
▁tourist	-11.7564
▁Howell	-11.7565
Heaven	-11.7565
▁salt	-11.7565
▁glory	-11.7565
▁degrade	-11.7565
Prom	-11.7565
▁Honey	-11.7565
▁yard	-11.7565
▁cruelty	-11.7565
▁NYC	-11.7565
▁Rickman	-11.7565
▁haircut	-11.7565
▁limp	-11.7565
▁foil	-11.7565
▁Drama	-11.7565
▁Hoover	-11.7565
▁Fiction	-11.7566
Worth	-11.7566
▁cutesy	-11.7566
▁underrated	-11.7566
kidnapping	-11.7566
▁comfortable	-11.7566
▁46	-11.7566
▁77	-11.7566
▁adaption	-11.7566
▁bullies	-11.7566
▁Milan	-11.7566
▁99	-11.7567
▁85	-11.7567
▁similarities	-11.7567
▁Predictable	-11.7567
▁complaints	-11.7567
▁flock	-11.7567
nvasion	-11.7568
▁bubble	-11.7568
▁theories	-11.7568
▁witless	-11.7568
▁Body	-11.7568
▁representation	-11.7568
▁restroom	-11.7568
roblem	-11.7569
ients	-11.7569
▁Dada	-11.7569
▁Aga	-11.7569
▁flair	-11.7569
▁apply	-11.7569
Small	-11.757
▁addiction	-11.757
▁plight	-11.757
▁HOW	-11.757
▁demonic	-11.7571
▁bride	-11.7571
▁dung	-11.7571
▁sane	-11.7571
▁Biblical	-11.7571
▁secretary	-11.7571
abby	-11.7571
▁Wise	-11.7572
▁minority	-11.7572
ndependence	-11.7572
▁Wann	-11.7572
▁Christianity	-11.7572
▁Maine	-11.7572
▁fright	-11.7572
▁editor	-11.7572
▁Turner	-11.7572
▁Zone	-11.7572
▁mansion	-11.7572
▁liar	-11.7573
▁SEA	-11.7573
▁saddle	-11.7573
▁Abba	-11.7573
acious	-11.7573
▁foolish	-11.7574
▁Studi	-11.7574
▁attraction	-11.7574
▁absurdity	-11.7575
▁Tough	-11.7575
▁mentality	-11.7575
▁reek	-11.7575
▁Human	-11.7576
▁illness	-11.7576
stairs	-11.7576
▁Squad	-11.7576
ogether	-11.7576
▁Blackie	-11.7577
tarian	-11.7577
▁punchline	-11.7577
▁cries	-11.7578
▁consol	-11.7578
▁fx	-11.7578
ophie	-11.7579
▁/>1)	-11.7579
▁witnesses	-11.7579
▁clash	-11.7579
▁Audi	-11.7579
Easy	-11.758
▁collector	-11.758
▁antique	-11.758
rish	-11.758
▁discussion	-11.7581
▁Opera	-11.7581
▁sexuality	-11.7581
▁Drum	-11.7581
▁unclear	-11.7582
▁chore	-11.7582
▁duh	-11.7583
▁cite	-11.7583
▁bible	-11.7583
▁distinction	-11.7584
▁dys	-11.7584
▁momentum	-11.7584
▁output	-11.7585
rody	-11.7586
▁bearable	-11.7586
▁growth	-11.7587
▁tire	-11.7587
▁cleverness	-11.7588
▁flashes	-11.7588
alcon	-11.7589
▁engaged	-11.7589
▁300	-11.7589
▁hag	-11.759
▁strand	-11.759
▁hall	-11.759
▁Nig	-11.759
ndrome	-11.7591
▁novella	-11.7591
▁Twin	-11.7592
▁Drive	-11.7592
▁dresses	-11.7593
▁retrea	-11.7594
▁Kathy	-11.7595
bending	-11.7595
▁cram	-11.7596
ddler	-11.7596
▁hippie	-11.7597
▁/>6.	-11.7598
▁legion	-11.76
▁poop	-11.76
LF	-11.7601
▁gimmicky	-11.7602
▁Pew	-11.7602
▁pup	-11.7603
▁hyper	-11.7603
▁darkness	-11.7603
▁Neal	-11.7604
melt	-11.7604
▁Newman	-11.7604
▁Nope	-11.7604
▁Meh	-11.7605
▁isolate	-11.7605
ITY	-11.7605
imbo	-11.7605
Eastern	-11.7606
▁MY	-11.7607
▁refugee	-11.7608
▁commander	-11.7608
▁Santa	-11.7609
▁chor	-11.7611
▁substantial	-11.7611
▁fury	-11.7613
▁Seven	-11.7613
ilton	-11.7614
Kar	-11.7617
▁lust	-11.7617
elope	-11.7626
dditionally	-11.7626
▁misses	-11.7629
Karmen	-11.7631
▁cup	-11.7631
▁stark	-11.7633
▁Rue	-11.7634
▁careless	-11.7635
▁Ok	-11.7639
▁needless	-11.7639
▁Elle	-11.7642
nik	-11.7644
▁mari	-11.7647
▁drone	-11.7649
ucker	-11.7653
▁egg	-11.7657
▁Gate	-11.7657
76	-11.7659
▁roller	-11.7661
shape	-11.7666
▁mop	-11.7667
▁rabi	-11.7671
▁criticize	-11.768
▁rear	-11.7688
▁initiati	-11.7689
▁accuse	-11.769
flex	-11.7694
▁skinn	-11.7696
thora	-11.7701
▁Nu	-11.7701
▁bog	-11.7702
▁mumbl	-11.7717
literate	-11.7735
Mild	-11.7755
quat	-11.7756
▁fatal	-11.7764
illbill	-11.7765
ffer	-11.7767
glo	-11.7773
naught	-11.7784
stein	-11.779
▁bowl	-11.782
▁Tyr	-11.783
▁shameful	-11.784
▁sparkl	-11.7848
slide	-11.7859
▁esca	-11.7881
classified	-11.7893
▁stac	-11.7894
▁PRE	-11.7927
▁Express	-11.7954
trained	-11.7963
gag	-11.7963
educated	-11.7984
Lear	-11.799
▁programme	-11.7992
NCE	-11.7994
▁replay	-11.8016
avy	-11.805
Harold	-11.8064
84	-11.8108
position	-11.8112
▁inexplicabl	-11.8112
▁dispose	-11.8137
▁Shi	-11.8143
▁Lou	-11.8145
▁define	-11.8147
▁continual	-11.8154
HR	-11.816
▁Ashle	-11.8193
ryl	-11.8202
ught	-11.8224
forgiven	-11.8236
pression	-11.8246
Skeleton	-11.8277
▁Jak	-11.8282
OFF	-11.8286
▁playful	-11.8304
▁improv	-11.8321
0)	-11.8348
▁forbid	-11.8352
IND	-11.8355
put	-11.8356
based	-11.836
Jen	-11.8369
▁costum	-11.837
disputed	-11.8376
▁unsur	-11.8388
Manos	-11.841
home	-11.842
suitable	-11.8421
▁Vik	-11.8421
fashioned	-11.8436
eche	-11.8456
gian	-11.8496
▁remarkabl	-11.8521
▁axe	-11.8527
spirited	-11.8541
▁pie	-11.8571
▁populat	-11.8572
bait	-11.8606
atman	-11.8623
TAL	-11.8628
EMA	-11.8656
▁incorporat	-11.8657
▁hipp	-11.8676
UT	-11.8695
▁gobbl	-11.8709
state	-11.8813
▁Greates	-11.8822
▁occurre	-11.8839
▁Bab	-11.8898
▁ironic	-11.8901
remarkable	-11.8949
veral	-11.8969
▁cigar	-11.9106
oba	-11.913
stitution	-11.9144
Mik	-11.9202
HERE	-11.9207
UH	-11.9208
etrate	-11.921
▁Ven	-11.9217
▁dupe	-11.922
▁Pia	-11.9226
ledge	-11.9255
lease	-11.9264
oose	-11.9298
▁balanc	-11.9313
▁$5	-11.9333
opped	-11.9358
▁brav	-11.9366
▁considerabl	-11.9423
Wend	-11.948
▁appreciati	-11.9537
tube	-11.9548
▁spa	-11.9624
▁uninvolv	-11.9695
▁MAD	-11.9737
▁dinosaur	-11.9787
▁accus	-11.9806
ribe	-11.9828
▁styl	-11.9829
▁fog	-11.9836
UNG	-11.9874
▁Screen	-11.99
falls	-11.9901
llowing	-11.9911
midst	-11.9921
▁litera	-11.9923
1/2	-11.9928
tasteful	-11.9929
tarring	-11.9931
permanently	-11.9945
Clearly	-11.9946
▁photograph	-11.9949
Hopefully	-11.997
inducing	-11.997
2000	-11.997
Heather	-11.9971
Third	-11.9972
traditional	-11.9972
interesting	-11.9972
Regardless	-11.9972
View	-11.9972
Stick	-11.9972
terror	-11.9973
craft	-11.9973
Piranha	-11.9973
India	-11.9974
Queen	-11.9974
erotic	-11.9974
convenient	-11.9974
passionate	-11.9974
Halloween	-11.9974
club	-11.9974
Apparently	-11.9975
Zombie	-11.9975
heroes	-11.9975
featur	-11.9975
Really	-11.9975
Milo	-11.9975
Blood	-11.9975
Kevin	-11.9975
Space	-11.9975
filled	-11.9975
Life	-11.9975
Everything	-11.9975
Thomas	-11.9976
standard	-11.9976
spoof	-11.9976
▁incompeten	-11.9976
House	-11.9976
blue	-11.9976
Long	-11.9976
Nobody	-11.9976
control	-11.9976
military	-11.9976
George	-11.9976
ALL	-11.9976
dream	-11.9976
perhaps	-11.9976
unfortunately	-11.9976
blood	-11.9977
Nothing	-11.9977
Peter	-11.9977
predictable	-11.9977
third	-11.9977
quality	-11.9977
high	-11.9977
everyone	-11.9977
wrong	-11.9977
probably	-11.9977
terrible	-11.9977
people	-11.9977
would	-11.9977
metal	-11.9977
finished	-11.9977
average	-11.9978
fast	-11.9978
space	-11.9979
credit	-11.9979
Hitch	-11.9981
prison	-11.9981
actress	-11.9982
Thank	-11.9982
between	-11.9982
classic	-11.9983
▁indulge	-11.9983
death	-11.9983
Good	-11.9983
decent	-11.9984
porn	-11.9984
matter	-11.9984
needed	-11.9984
copy	-11.9984
again	-11.9987
Will	-11.9989
usual	-11.9989
sense	-11.9989
another	-11.999
person	-11.9991
trying	-11.9991
14	-11.9992
change	-11.9993
▁fascinat	-11.9993
▁expens	-11.9994
▁overwhelm	-11.9995
▁subtitle	-11.9995
▁appall	-11.9998
Over	-12
same	-12.0001
▁clap	-12.0004
fake	-12.0011
▁south	-12.0014
chiev	-12.0016
▁essential	-12.0021
▁Miche	-12.0024
neath	-12.0027
▁complicate	-12.0033
▁valu	-12.0034
▁inspire	-12.0034
waste	-12.0034
▁psycholog	-12.0038
infinite	-12.0042
imagin	-12.0043
▁Turn	-12.0045
▁Africa	-12.0045
cycle	-12.0048
FUL	-12.0049
SON	-12.0051
▁dread	-12.0052
nspector	-12.0052
▁imitat	-12.0054
▁femini	-12.0055
semblance	-12.0056
▁inevitab	-12.0057
▁Blond	-12.0057
▁ponder	-12.0058
ecution	-12.0059
zzie	-12.0059
▁intellect	-12.006
conduct	-12.006
▁succ	-12.006
▁Japan	-12.006
Eegah	-12.006
▁Valentine	-12.006
▁faux	-12.006
▁approximate	-12.006
▁definitive	-12.006
▁exorcis	-12.006
▁imbecil	-12.006
▁smooth	-12.006
▁universal	-12.006
▁wizard	-12.006
Boetticher	-12.006
CAMP	-12.006
Caribbean	-12.006
Detective	-12.006
Fontaine	-12.006
Globus	-12.006
Kurosawa	-12.006
Malibu	-12.006
RIOUS	-12.006
Sasquatch	-12.006
abotage	-12.006
distribution	-12.006
efficient	-12.006
episodic	-12.006
examination	-12.006
hipmunks	-12.006
misunderstood	-12.006
ocrats	-12.006
olocaust	-12.006
trepid	-12.006
}	-12.006
ó	-12.006
▁(1987)	-12.006
▁(1999)	-12.006
▁1965	-12.006
▁1982	-12.006
▁1997	-12.006
▁2008	-12.006
▁ALIVE	-12.006
▁ANYTHING	-12.006
▁Airplane	-12.006
▁Aldrich	-12.006
▁Antichrist	-12.006
▁Atreides	-12.006
▁BLOOD	-12.006
▁Bueller	-12.006
▁CHILD	-12.006
▁Carradine	-12.006
▁Charlotte	-12.006
▁Crawford	-12.006
▁Crichton	-12.006
▁Cyndi	-12.006
▁Dafoe	-12.006
▁Deneuve	-12.006
▁Dennehy	-12.006
▁Dodgeball	-12.006
▁EXACTLY	-12.006
▁Edmondson	-12.006
▁Elliot	-12.006
▁Episode	-12.006
▁Eraserhead	-12.006
▁Experiment	-12.006
▁Exterminator	-12.006
▁Festival	-12.006
▁Fight	-12.006
▁Florida	-12.006
▁Folks	-12.006
▁Frankenstein	-12.006
▁Freeman	-12.006
▁Gebhardt	-12.006
▁Gibson	-12.006
▁Gorcey	-12.006
▁Goudurix	-12.006
▁Granny	-12.006
▁Greengrass	-12.006
▁Haggis	-12.006
▁Hardbodies	-12.006
▁Hemingway	-12.006
▁Huppert	-12.006
▁Incredible	-12.006
▁Kafka	-12.006
▁Liberal	-12.006
▁Mandarin	-12.006
▁Mathews	-12.006
▁McCrae	-12.006
▁Meredith	-12.006
▁Pfeiffer	-12.006
▁Phoenix	-12.006
▁Photograph	-12.006
▁Production	-12.006
▁Quixote	-12.006
▁Reagan	-12.006
▁Redgrave	-12.006
▁Republicans	-12.006
▁SUCK	-12.006
▁Savage	-12.006
▁Script	-12.006
▁Shoeshine	-12.006
▁Simmons	-12.006
▁Soprano	-12.006
▁Spencer	-12.006
▁Suddenly	-12.006
▁Sunshine	-12.006
▁TRASH	-12.006
▁Thurman	-12.006
▁Treadwell	-12.006
▁Vaughn	-12.006
▁Venezuela	-12.006
▁Wagner	-12.006
▁Wiggly	-12.006
▁ambiguous	-12.006
▁analysis	-12.006
▁annoyance	-12.006
▁anonymous	-12.006
▁antidote	-12.006
▁applause	-12.006
▁arrogance	-12.006
▁arsonist	-12.006
▁baffling	-12.006
▁befriend	-12.006
▁beggars	-12.006
▁behaviour	-12.006
▁biopic	-12.006
▁candidate	-12.006
▁centuries	-12.006
▁charlatan	-12.006
▁clerk	-12.006
▁component	-12.006
▁composer	-12.006
▁comprehend	-12.006
▁contempt	-12.006
▁craziness	-12.006
▁credentials	-12.006
▁cunning	-12.006
▁default	-12.006
▁definition	-12.006
▁denominator	-12.006
▁deserving	-12.006
▁detriment	-12.006
▁deviate	-12.006
▁diabolical	-12.006
▁dialect	-12.006
▁diatribe	-12.006
▁dilemma	-12.006
▁economy	-12.006
▁elaborate	-12.006
▁elected	-12.006
▁electrocut	-12.006
▁elevate	-12.006
▁embark	-12.006
▁emulate	-12.006
▁erratic	-12.006
▁extensive	-12.006
▁fiancé	-12.006
▁futility	-12.006
▁futuristic	-12.006
▁generating	-12.006
▁grandparents	-12.006
▁grenade	-12.006
▁hallucinat	-12.006
▁homophobi	-12.006
▁horrified	-12.006
▁hypnoti	-12.006
▁idiocy	-12.006
▁improvisation	-12.006
▁inclined	-12.006
▁intestines	-12.006
▁mechanical	-12.006
▁medicine	-12.006
▁monstrosity	-12.006
▁mundane	-12.006
▁narcissis	-12.006
▁newspaper	-12.006
▁nubile	-12.006
▁organization	-12.006
▁patience	-12.006
▁peculiar	-12.006
▁perceive	-12.006
▁permission	-12.006
▁perpetrator	-12.006
▁persuade	-12.006
▁plagiarism	-12.006
▁procedure	-12.006
▁prologue	-12.006
▁psyche	-12.006
▁puddle	-12.006
▁pyrotechnic	-12.006
▁reappear	-12.006
▁rudimentary	-12.006
▁schtick	-12.006
▁sector	-12.006
▁silliness	-12.006
▁stellar	-12.006
▁strategy	-12.006
▁subversive	-12.006
▁superfluous	-12.006
▁supermarket	-12.006
▁supplie	-12.006
▁surgery	-12.006
▁symphony	-12.006
▁synchroniz	-12.006
▁temptation	-12.006
▁territory	-12.006
▁thirties	-12.006
▁thirty	-12.006
▁transparent	-12.006
▁transplant	-12.006
▁transsexual	-12.006
▁triangle	-12.006
▁unappealing	-12.006
▁unexposed	-12.006
▁unforgettabl	-12.006
▁unnecessarily	-12.006
▁unwanted	-12.006
▁vengeance	-12.006
▁videotape	-12.006
▁virtue	-12.006
▁vulgar	-12.006
▁whereabouts	-12.006
▁worries	-12.006
marijuana	-12.006
▁BOMB	-12.006
▁Cliff	-12.006
▁Cloud	-12.006
▁Czech	-12.006
▁Disappear	-12.006
▁England	-12.006
▁Filip	-12.006
▁Jersey	-12.006
▁Knotts	-12.006
▁Montand	-12.006
▁Nelson	-12.006
▁PPV	-12.006
▁Philip	-12.006
▁Rooker	-12.006
▁Sweden	-12.006
▁THINK	-12.006
▁Trooper	-12.006
▁VCR	-12.006
▁Whitfield	-12.006
▁athlete	-12.006
▁bigotry	-12.006
▁bullshit	-12.006
▁clutter	-12.006
▁commend	-12.006
▁devastat	-12.006
▁dodgy	-12.006
▁emperor	-12.006
▁emphatic	-12.006
▁extinguish	-12.006
▁fundamental	-12.006
▁gymnast	-12.006
▁hijack	-12.006
▁masturbat	-12.006
▁monitor	-12.006
▁philosophical	-12.006
▁physici	-12.006
▁pursuit	-12.006
▁rebuild	-12.006
▁shoddi	-12.006
▁software	-12.006
▁stimulat	-12.006
▁transport	-12.006
Throughout	-12.006
motivated	-12.006
smith	-12.006
▁Agnes	-12.006
▁Cumming	-12.006
▁Hudson	-12.006
▁Jefferson	-12.006
▁Kelley	-12.006
▁Massey	-12.006
▁Miami	-12.006
▁Samuel	-12.006
▁Scooby	-12.006
▁Trainor	-12.006
▁altered	-12.006
▁blunder	-12.006
▁caution	-12.006
▁dispatch	-12.006
▁dispens	-12.006
▁download	-12.006
▁dunno	-12.006
▁gallery	-12.006
▁improvised	-12.006
▁mandatory	-12.006
▁parlor	-12.006
▁promoting	-12.006
▁rabbit	-12.006
▁regurgitat	-12.006
▁stagger	-12.006
▁unemploy	-12.006
---------	-12.006
▁Creek	-12.006
▁Oooh	-12.006
▁Texan	-12.006
▁crotch	-12.006
▁relax	-12.006
▁synthe	-12.006
Hercules	-12.006
ellini	-12.006
▁Cooper	-12.006
▁Eagle	-12.006
▁MAY	-12.006
▁WAY	-12.006
▁Yawn	-12.006
▁ineffective	-12.006
▁shatter	-12.006
▁wilderness	-12.006
▁BOY	-12.006
▁Mafia	-12.006
▁Ugh	-12.006
▁Weaver	-12.006
▁assigned	-12.006
▁cafe	-12.006
▁dawn	-12.006
▁deceive	-12.006
▁echo	-12.006
▁french	-12.006
▁rewind	-12.006
▁slime	-12.006
▁Dalton	-12.006
▁Wenders	-12.006
▁embrace	-12.006
▁inflict	-12.006
▁Cohen	-12.006
▁Isaac	-12.006
▁Klein	-12.006
▁LSD	-12.006
▁sewn	-12.006
▁Anime	-12.006
▁BTW	-12.006
▁Worse	-12.006
▁conquer	-12.006
▁cyber	-12.006
▁intensity	-12.006
▁parrot	-12.006
continent	-12.006
perverted	-12.006
▁Turki	-12.006
▁eerie	-12.006
▁Perkins	-12.006
▁concoct	-12.006
▁robbers	-12.006
Levit	-12.006
Language	-12.006
▁Allison	-12.006
▁Bacon	-12.006
▁Ryder	-12.006
▁schoolgirls	-12.006
▁summarize	-12.006
▁superimpose	-12.006
▁CBS	-12.006
Samantha	-12.006
▁UNDER	-12.006
▁march	-12.006
▁misfit	-12.006
▁spray	-12.006
▁temporar	-12.006
▁trend	-12.006
▁troop	-12.006
▁Roeg	-12.006
▁compartment	-12.006
magneti	-12.006
▁Petty	-12.006
▁framing	-12.006
▁hallmark	-12.006
▁unleash	-12.006
▁worm	-12.006
▁detach	-12.006
▁reform	-12.006
▁microphone	-12.006
▁waist	-12.006
REAT	-12.006
▁ease	-12.006
▁remarks	-12.006
▁tolerance	-12.006
▁coherenc	-12.006
▁barrier	-12.006
▁mercenar	-12.006
▁Busey	-12.006
▁atypical	-12.006
▁disabled	-12.006
▁Descent	-12.006
▁Present	-12.006
▁shunn	-12.006
▁Besser	-12.006
▁pronounc	-12.006
▁Basinger	-12.006
▁confine	-12.006
▁drugged	-12.006
consistency	-12.006
▁ensure	-12.006
▁plunge	-12.006
▁river	-12.006
▁incestuous	-12.006
▁reprise	-12.006
▁shiny	-12.006
▁Morocc	-12.006
▁scouts	-12.006
▁exclusiv	-12.006
▁hollywood	-12.006
2002	-12.006
▁elite	-12.006
▁Dyan	-12.006
▁1988	-12.006
▁sugar	-12.006
▁divert	-12.0061
▁roam	-12.0061
▁$1.99	-12.0061
▁Shorty	-12.0061
DIC	-12.0061
▁Dunaway	-12.0061
▁Editing	-12.0061
▁Fonda	-12.0061
▁retain	-12.0061
▁chops	-12.0061
▁Estates	-12.0061
▁divid	-12.0061
▁Zucker	-12.0061
tacle	-12.0061
▁endearing	-12.0061
▁Twi	-12.0061
▁Bird	-12.0061
▁Robbins	-12.0061
▁improbable	-12.0061
▁1956	-12.0061
▁Lovejoy	-12.0061
▁vivid	-12.0061
yfri	-12.0061
Rosemary	-12.0061
▁Saint	-12.0061
Amadeus	-12.0061
▁glance	-12.0061
▁Razzie	-12.0061
▁CIA	-12.0061
▁Lounge	-12.0061
▁cocaine	-12.0061
▁ignorance	-12.0061
▁floppy	-12.0061
▁championship	-12.0061
trude	-12.0061
▁flirt	-12.0061
Capote	-12.0061
▁Oops	-12.0061
Genius	-12.0061
ollege	-12.0061
▁IFC	-12.0061
▁Combin	-12.0061
▁enforce	-12.0061
▁Knowles	-12.0061
▁Rosie	-12.0061
▁flavor	-12.0061
rizon	-12.0061
▁midnight	-12.0061
▁Everett	-12.0061
▁ignorant	-12.0061
▁ineptitude	-12.0061
▁profile	-12.0061
ghast	-12.0061
▁kilt	-12.0061
▁Matrix	-12.0061
▁senior	-12.0061
agasse	-12.0061
.000	-12.0061
▁agony	-12.0061
▁Emerson	-12.0061
▁archiv	-12.0061
▁exhibition	-12.0061
▁defiant	-12.0062
▁tease	-12.0062
▁dynamic	-12.0062
Wonder	-12.0062
▁1959	-12.0062
▁hammer	-12.0062
▁Lambert	-12.0062
▁drool	-12.0062
▁Enron	-12.0062
▁Magoo	-12.0062
Xena	-12.0062
▁Grave	-12.0062
ardinal	-12.0062
▁Luckily	-12.0062
▁tagline	-12.0062
▁predictably	-12.0062
▁travelogue	-12.0062
▁hammy	-12.0062
▁VIV	-12.0062
▁senile	-12.0062
▁easiest	-12.0062
ugust	-12.0062
▁brainwash	-12.0062
▁HATE	-12.0062
▁external	-12.0062
▁Coburn	-12.0062
▁Cobra	-12.0062
▁Wayans	-12.0062
▁shore	-12.0062
▁financing	-12.0062
▁furious	-12.0062
▁Vikings	-12.0062
▁bedroom	-12.0062
▁systematic	-12.0062
▁unrecognizable	-12.0062
▁midget	-12.0062
▁communication	-12.0062
▁swift	-12.0062
TOM	-12.0062
▁poses	-12.0063
▁Gimm	-12.0063
▁chaos	-12.0063
▁stroll	-12.0063
Technical	-12.0063
▁sixties	-12.0063
alleged	-12.0063
▁peek	-12.0063
▁alarm	-12.0063
▁adjust	-12.0063
▁brood	-12.0063
▁resent	-12.0063
▁penny	-12.0063
▁percent	-12.0064
▁Proud	-12.0064
▁gunfire	-12.0064
▁transformation	-12.0064
▁YEA	-12.0064
▁parodies	-12.0064
▁$100	-12.0064
▁lens	-12.0064
▁IMA	-12.0064
ANG	-12.0064
▁Cannes	-12.0064
▁bonus	-12.0064
▁diva	-12.0064
Network	-12.0064
▁wolfman	-12.0064
▁spew	-12.0064
▁Domini	-12.0064
▁Allende	-12.0064
mbus	-12.0065
▁colour	-12.0065
▁dismisse	-12.0065
▁lurid	-12.0065
▁RAF	-12.0065
▁disarm	-12.0065
▁Zane	-12.0065
▁Walsh	-12.0065
▁interior	-12.0065
▁gunplay	-12.0065
ndez	-12.0065
▁salut	-12.0065
▁cere	-12.0065
▁Dolls	-12.0065
Destin	-12.0066
EMO	-12.0066
▁Garland	-12.0066
deployed	-12.0066
▁sprint	-12.0066
▁judgement	-12.0066
▁operative	-12.0066
Cube	-12.0067
aboo	-12.0067
▁wax	-12.0067
▁Chile	-12.0067
uffice	-12.0067
▁Hood	-12.0067
Lestat	-12.0067
▁Raj	-12.0067
▁Apes	-12.0067
▁vow	-12.0067
▁Lister	-12.0067
▁Berry	-12.0067
▁Season	-12.0067
▁Karl	-12.0067
Dream	-12.0068
▁laden	-12.0068
▁capitalist	-12.0068
▁breathtaking	-12.0068
▁Sadie	-12.0068
▁Perine	-12.0068
▁inspector	-12.0068
▁virginity	-12.0068
▁leper	-12.0068
▁Bond	-12.0068
▁priceless	-12.0069
▁lush	-12.0069
▁Whine	-12.0069
▁75	-12.0069
▁crab	-12.0069
atrina	-12.007
historic	-12.007
▁Histor	-12.007
▁nuance	-12.007
▁Morton	-12.007
▁fifties	-12.007
▁complexity	-12.0071
▁vary	-12.0071
▁studies	-12.0071
▁static	-12.0071
▁impersonation	-12.0071
ULL	-12.0071
▁loop	-12.0071
▁Carry	-12.0071
▁Malli	-12.0071
▁pound	-12.0072
▁Emil	-12.0072
▁slant	-12.0072
▁earnest	-12.0072
▁spout	-12.0072
▁slam	-12.0072
NUE	-12.0072
▁Keen	-12.0072
▁desk	-12.0072
▁batter	-12.0073
▁Agar	-12.0073
▁Danson	-12.0073
▁volcanoes	-12.0073
▁eyeball	-12.0073
▁Emer	-12.0073
▁gaze	-12.0074
▁Golan	-12.0074
▁Wave	-12.0074
▁Elton	-12.0074
▁tart	-12.0075
▁winter	-12.0075
▁plate	-12.0075
ritz	-12.0075
▁Funny	-12.0075
▁Thus	-12.0076
▁Burton	-12.0076
▁wallow	-12.0076
▁Rule	-12.0077
warf	-12.0077
▁jell	-12.0077
▁bloodline	-12.0077
▁Mandy	-12.0078
▁/>5)	-12.0078
hounds	-12.0079
▁couch	-12.0079
▁Serg	-12.0079
▁Latino	-12.0079
▁Lana	-12.008
▁stake	-12.008
eague	-12.0081
▁distraction	-12.0081
▁Beach	-12.0081
▁Osa	-12.0082
▁Irvin	-12.0082
ASA	-12.0083
fusion	-12.0083
▁summon	-12.0083
ilence	-12.0083
▁flies	-12.0083
vative	-12.0083
▁boil	-12.0084
Close	-12.0084
▁endorse	-12.0086
▁polar	-12.0086
▁Chair	-12.0086
▁Solom	-12.0087
predictability	-12.0087
▁500	-12.0088
▁steril	-12.0088
▁Found	-12.0088
Stranger	-12.0089
shoe	-12.009
layered	-12.0091
AME	-12.0093
▁woo	-12.0094
▁slay	-12.0096
▁divin	-12.0097
Swift	-12.0098
▁monumental	-12.0103
ummy	-12.0111
dministration	-12.0112
▁Sort	-12.0115
▁Vag	-12.0116
▁spo	-12.0118
▁Strangel	-12.012
Jaws	-12.012
Voice	-12.0129
Files	-12.0131
oodle	-12.0133
egal	-12.0134
▁dash	-12.0144
Carol	-12.0145
▁Tell	-12.0149
▁Div	-12.0151
ZOMBIES	-12.0164
LAND	-12.0167
tree	-12.0169
tuning	-12.0172
hrill	-12.0174
▁zil	-12.0174
ookie	-12.0178
▁Stei	-12.0179
▁lurk	-12.0183
▁merciful	-12.0187
▁pour	-12.0191
eopard	-12.0196
▁delightful	-12.02
▁Kea	-12.0201
▁disintegrat	-12.0216
▁dip	-12.0217
▁contestant	-12.0218
▁precu	-12.0224
▁Hassa	-12.0231
▁wha	-12.0234
▁speculati	-12.0237
unge	-12.0258
▁torch	-12.0267
▁Yak	-12.027
▁tagg	-12.0273
archetypes	-12.0286
isdom	-12.0289
▁hur	-12.0309
▁cease	-12.0316
Stanley	-12.0326
▁slipp	-12.0328
choreographed	-12.0366
Skip	-12.0382
ncidentally	-12.0439
spoon	-12.0445
grin	-12.0453
88	-12.0458
▁germ	-12.0489
▁Mah	-12.0492
nished	-12.0501
shack	-12.057
arbon	-12.0575
fulfillment	-12.0582
untie	-12.0606
▁Jov	-12.0634
▁overplay	-12.0635
Valeri	-12.0645
utated	-12.0645
Class	-12.0653
▁Mack	-12.0654
▁sacrific	-12.0699
400	-12.0708
▁atheist	-12.0738
▁enthusiastic	-12.0773
essa	-12.0797
Demon	-12.0802
cademy	-12.0826
gree	-12.0835
businessmen	-12.084
corn	-12.0908
ickey	-12.1042
Dude	-12.1052
▁clarif	-12.1104
▁slop	-12.1123
▁alternat	-12.1186
maniac	-12.1191
▁repu	-12.1192
▁revolv	-12.1206
Truly	-12.1252
egacy	-12.1256
▁genetic	-12.126
ashing	-12.127
damaged	-12.1317
recognise	-12.1519
rindhouse	-12.1548
▁Drago	-12.1554
correctness	-12.157
▁twi	-12.1598
▁Interesting	-12.1636
▁defi	-12.1736
Barn	-12.1794
▁phenomen	-12.1881
▁deba	-12.1904
lugs	-12.192
▁Tea	-12.1965
alternate	-12.2008
gritt	-12.208
▁dispute	-12.2084
defeated	-12.2113
▁Skeleto	-12.2228
punks	-12.2272
ommittee	-12.2335
▁democrat	-12.2637
allows	-12.2797
▁Aunt	-12.2854
▁burg	-12.2859
▁unab	-12.2914
▁replac	-12.2953
▁Pleas	-12.2955
▁choreographe	-12.2983
twee	-12.3014
believe	-12.3073
rgas	-12.3075
▁error	-12.3125
▁(199	-12.3147
elod	-12.3165
▁combin	-12.3173
daptation	-12.3192
ercifully	-12.322
version	-12.3256
ologist	-12.3261
▁depress	-12.3274
▁ignor	-12.3287
adult	-12.3294
meditat	-12.3294
nything	-12.3298
ground	-12.3302
▁releas	-12.3302
Sweet	-12.3303
undercover	-12.3303
rnered	-12.3303
numbing	-12.3304
VIVIAN	-12.3304
Vacation	-12.3304
cheek	-12.3304
Road	-12.3304
centered	-12.3305
Davies	-12.3305
function	-12.3305
fair	-12.3305
Something	-12.3305
Play	-12.3306
acceptable	-12.3306
Read	-12.3306
School	-12.3306
Step	-12.3307
Jeff	-12.3307
Special	-12.3307
Catherine	-12.3307
Jimmy	-12.3307
Dracula	-12.3307
current	-12.3308
crack	-12.3308
Actually	-12.3308
Sadly	-12.3308
loving	-12.3308
priest	-12.3308
retarded	-12.3308
double	-12.3308
protect	-12.3308
Acting	-12.3308
mysterious	-12.3308
Blair	-12.3308
Western	-12.3309
masterpiece	-12.3309
understanding	-12.3309
difference	-12.3309
tight	-12.3309
African	-12.3309
section	-12.3309
Great	-12.3309
intelligent	-12.3309
White	-12.3309
romance	-12.3309
Green	-12.3309
Jerry	-12.3309
Horror	-12.3309
Black	-12.3309
demand	-12.3309
Randy	-12.3309
soldiers	-12.3309
Bruce	-12.3309
Ryan	-12.3309
zombie	-12.3309
wrote	-12.3309
identifi	-12.3309
villain	-12.3309
intended	-12.331
secret	-12.331
romantic	-12.331
extra	-12.331
Film	-12.331
suspect	-12.331
soundtrack	-12.331
Disney	-12.331
entertainment	-12.331
possible	-12.331
James	-12.331
amount	-12.331
yeah	-12.331
released	-12.331
example	-12.331
family	-12.331
suspense	-12.331
DVD	-12.331
stupid	-12.3311
mainly	-12.3311
game	-12.3311
damn	-12.3311
worst	-12.3311
▁secre	-12.3312
gay	-12.3314
quote	-12.3315
cinema	-12.3319
charge	-12.332
▁choos	-12.3322
▁humiliat	-12.3327
▁avail	-12.3333
bserve	-12.3338
▁abandon	-12.3341
▁argu	-12.3344
▁celeb	-12.3346
uuu	-12.3353
▁instant	-12.3357
▁easi	-12.3357
LOT	-12.3362
retched	-12.3366
▁Squa	-12.3366
▁marrie	-12.3367
ussie	-12.337
cargo	-12.3371
ieving	-12.3371
tique	-12.3376
▁templ	-12.3377
mportant	-12.3378
▁calib	-12.3378
▁scenari	-12.3383
variabl	-12.3386
riginal	-12.3386
urveillance	-12.3387
lways	-12.3387
▁constructi	-12.3388
etween	-12.3389
imaginative	-12.3389
riving	-12.3389
▁communicat	-12.339
▁Griffi	-12.339
▁compani	-12.339
▁marvel	-12.3391
uropean	-12.3391
urprise	-12.3391
▁compass	-12.3391
▁ridicul	-12.3391
eautiful	-12.3391
itizen	-12.3392
▁obli	-12.3392
overnment	-12.3392
▁frustrati	-12.3392
▁bodi	-12.3392
bbins	-12.3392
ickening	-12.3393
▁coincide	-12.3393
▁smug	-12.3393
DERS	-12.3393
▁stereo	-12.3393
▁warehouse	-12.3393
raiser	-12.3393
▁bohemian	-12.3393
▁Globe	-12.3393
@	-12.3393
camouflage	-12.3393
▁congress	-12.3393
▁english	-12.3393
▁nympho	-12.3393
▁volunt	-12.3393
????????????	-12.3393
Belphégor	-12.3393
Beowulf	-12.3393
Costigan	-12.3393
Costumes	-12.3393
Elephant	-12.3393
Favorite	-12.3393
Gyllenhaal	-12.3393
HOWEVER	-12.3393
Horrendous	-12.3393
Jarmusch	-12.3393
Kayako	-12.3393
Masterpiece	-12.3393
Occasionally	-12.3393
POSSIBLE	-12.3393
Written	-12.3393
boggling	-12.3393
elinquents	-12.3393
extraterrestrial	-12.3393
fidelity	-12.3393
hronicles	-12.3393
illennium	-12.3393
ingaporean	-12.3393
iscrimination	-12.3393
mutilation	-12.3393
platform	-12.3393
sanctimonious	-12.3393
servations	-12.3393
	-12.3393
à	-12.3393
è	-12.3393
▁$4.99	-12.3393
▁(1941)	-12.3393
▁1972	-12.3393
▁1978	-12.3393
▁1981	-12.3393
▁1985	-12.3393
▁1987	-12.3393
▁1999	-12.3393
▁2004	-12.3393
▁2525	-12.3393
▁747	-12.3393
▁AWAY	-12.3393
▁Abraham	-12.3393
▁Affair	-12.3393
▁Alabama	-12.3393
▁Anaconda	-12.3393
▁Augenstein	-12.3393
▁Augustus	-12.3393
▁Belushi	-12.3393
▁Bucuresti	-12.3393
▁Bunuel	-12.3393
▁CONTAIN	-12.3393
▁Chabot	-12.3393
▁Clothes	-12.3393
▁Conference	-12.3393
▁Continent	-12.3393
▁Copperfield	-12.3393
▁Cosgrove	-12.3393
▁Cowboy	-12.3393
▁Depardieu	-12.3393
▁Development	-12.3393
▁Dreyfus	-12.3393
▁EGYPT	-12.3393
▁Einstein	-12.3393
▁Emanuelle	-12.3393
▁Emmet	-12.3393
▁Englund	-12.3393
▁Entertainment	-12.3393
▁Ewoks	-12.3393
▁Fehrman	-12.3393
▁Freshman	-12.3393
▁Furhman	-12.3393
▁GHOSTHOUSE	-12.3393
▁Gellar	-12.3393
▁Georgia	-12.3393
▁Ghastly	-12.3393
▁Godfrey	-12.3393
▁Goldthwait	-12.3393
▁Gurdjieff	-12.3393
▁Hahahah	-12.3393
▁Henstridge	-12.3393
▁Horatio	-12.3393
▁Hoskins	-12.3393
▁Imperioli	-12.3393
▁JACK	-12.3393
▁Kaufman	-12.3393
▁LITTLE	-12.3393
▁Labelle	-12.3393
▁Lavender	-12.3393
▁Leguizamo	-12.3393
▁Lippert	-12.3393
▁Lithgow	-12.3393
▁Luckinbill	-12.3393
▁Ludwig	-12.3393
▁Lundgren	-12.3393
▁Lupino	-12.3393
▁Magazine	-12.3393
▁Malaysia	-12.3393
▁Mandylor	-12.3393
▁Mayflower	-12.3393
▁McGovern	-12.3393
▁McKean	-12.3393
▁Miguel	-12.3393
▁Minnesota	-12.3393
▁Moeller	-12.3393
▁Monogram	-12.3393
▁Murdock	-12.3393
▁Netflix	-12.3393
▁Newcastle	-12.3393
▁Nicola	-12.3393
▁Nielsen	-12.3393
▁Nielson	-12.3393
▁Obaba	-12.3393
▁Paradiso	-12.3393
▁Patriot	-12.3393
▁Physic	-12.3393
▁Pinocchio	-12.3393
▁Poltergeist	-12.3393
▁Princess	-12.3393
▁Provine	-12.3393
▁RIVER	-12.3393
▁Rhodes	-12.3393
▁Rodriguez	-12.3393
▁Ryoko	-12.3393
▁Schumacher	-12.3393
▁Schwarzeneg	-12.3393
▁Scorsese	-12.3393
▁Secret	-12.3393
▁Seitzman	-12.3393
▁Spelling	-12.3393
▁Steaua	-12.3393
▁Sybok	-12.3393
▁TASTE	-12.3393
▁TERRIBLE	-12.3393
▁Tamara	-12.3393
▁Teresa	-12.3393
▁Terminator	-12.3393
▁Titanic	-12.3393
▁Translation	-12.3393
▁VanBebber	-12.3393
▁Vinci	-12.3393
▁Whalley	-12.3393
▁Widmark	-12.3393
▁Wilkinson	-12.3393
▁Woolf	-12.3393
▁[1946]	-12.3393
▁abortion	-12.3393
▁acclaim	-12.3393
▁accompaniment	-12.3393
▁aggressive	-12.3393
▁alphabet	-12.3393
▁anachronis	-12.3393
▁analyze	-12.3393
▁animators	-12.3393
▁apathetic	-12.3393
▁autobiography	-12.3393
▁aviation	-12.3393
▁bartender	-12.3393
▁basket	-12.3393
▁blasphem	-12.3393
▁bologna	-12.3393
▁bourgeois	-12.3393
▁brilliance	-12.3393
▁cadaver	-12.3393
▁carnival	-12.3393
▁categories	-12.3393
▁ceremony	-12.3393
▁chauvinis	-12.3393
▁choreography	-12.3393
▁civilians	-12.3393
▁complement	-12.3393
▁consequently	-12.3393
▁constipat	-12.3393
▁convertible	-12.3393
▁corporation	-12.3393
▁cruise	-12.3393
▁culminati	-12.3393
▁deceitful	-12.3393
▁deceptive	-12.3393
▁degenerate	-12.3393
▁demeaning	-12.3393
▁demeanor	-12.3393
▁deprav	-12.3393
▁despair	-12.3393
▁desperation	-12.3393
▁devotion	-12.3393
▁disastrous	-12.3393
▁dishonest	-12.3393
▁druid	-12.3393
▁dummies	-12.3393
▁eclipse	-12.3393
▁economi	-12.3393
▁egregious	-12.3393
▁election	-12.3393
▁eloquent	-12.3393
▁empathy	-12.3393
▁empire	-12.3393
▁escort	-12.3393
▁ethics	-12.3393
▁exceeding	-12.3393
▁extravaganza	-12.3393
▁filmography	-12.3393
▁flagrant	-12.3393
▁frenetic	-12.3393
▁fruitcake	-12.3393
▁furniture	-12.3393
▁glamorous	-12.3393
▁gossip	-12.3393
▁grudge	-12.3393
▁heartbreaking	-12.3393
▁hindsight	-12.3393
▁hispanic	-12.3393
▁hulking	-12.3393
▁hurricane	-12.3393
▁idyllic	-12.3393
▁illustration	-12.3393
▁immigra	-12.3393
▁immoral	-12.3393
▁impulse	-12.3393
▁inconsequential	-12.3393
▁infomercial	-12.3393
▁inoffensive	-12.3393
▁insecurities	-12.3393
▁intermittent	-12.3393
▁jargon	-12.3393
▁jealously	-12.3393
▁jewel	-12.3393
▁lethargic	-12.3393
▁magazine	-12.3393
▁manipulation	-12.3393
▁mechanism	-12.3393
▁moustache	-12.3393
▁narcoti	-12.3393
▁necessity	-12.3393
▁neighbour	-12.3393
▁numerology	-12.3393
▁obese	-12.3393
▁objectivity	-12.3393
▁obsession	-12.3393
▁orchestral	-12.3393
▁orchestrate	-12.3393
▁outweigh	-12.3393
▁overshadow	-12.3393
▁overweight	-12.3393
▁overwrought	-12.3393
▁patronizing	-12.3393
▁perfunctory	-12.3393
▁polemic	-12.3393
▁precaution	-12.3393
▁predecessor	-12.3393
▁pretension	-12.3393
▁proclaim	-12.3393
▁profanity	-12.3393
▁prophecy	-12.3393
▁prosthetic	-12.3393
▁provocation	-12.3393
▁pseudonym	-12.3393
▁quintessen	-12.3393
▁recognition	-12.3393
▁rehabilitat	-12.3393
▁reluctant	-12.3393
▁repetition	-12.3393
▁reptiles	-12.3393
▁risqu	-12.3393
▁schedule	-12.3393
▁schmaltz	-12.3393
▁schmucks	-12.3393
▁scholar	-12.3393
▁sculpture	-12.3393
▁selected	-12.3393
▁shenanigan	-12.3393
▁snippet	-12.3393
▁statistics	-12.3393
▁strumpet	-12.3393
▁stumbling	-12.3393
▁sunflower	-12.3393
▁tedium	-12.3393
▁telekinetic	-12.3393
▁tomatoes	-12.3393
▁torturous	-12.3393
▁tragedy	-12.3393
▁tremendous	-12.3393
▁trigger	-12.3393
▁trimmed	-12.3393
▁turbulen	-12.3393
▁undisciplined	-12.3393
▁uneasy	-12.3393
▁unfamiliar	-12.3393
▁unnoticed	-12.3393
▁unofficial	-12.3393
▁unrelenting	-12.3393
▁unrestrained	-12.3393
▁vagina	-12.3393
▁vandalism	-12.3393
▁wolves	-12.3393
▁yahoos	-12.3393
▁yourselves	-12.3393
1⁄2	-12.3393
culously	-12.3393
lchemy	-12.3393
▁Colonel	-12.3393
▁Craven	-12.3393
▁Dawson	-12.3393
▁Farmiga	-12.3393
▁Husband	-12.3393
▁Islamic	-12.3393
▁Kansas	-12.3393
▁Lincoln	-12.3393
▁Machine	-12.3393
▁Maggie	-12.3393
▁Mirren	-12.3393
▁Namib	-12.3393
▁Scalia	-12.3393
▁Suicide	-12.3393
▁Vickers	-12.3393
▁WWF	-12.3393
▁accommodat	-12.3393
▁accompany	-12.3393
▁bewilder	-12.3393
▁blossom	-12.3393
▁cluck	-12.3393
▁cohesion	-12.3393
▁communist	-12.3393
▁devious	-12.3393
▁disorient	-12.3393
▁electronic	-12.3393
▁estimate	-12.3393
▁firecracker	-12.3393
▁impoten	-12.3393
▁infiltrat	-12.3393
▁jeans	-12.3393
▁manufactur	-12.3393
▁misogynist	-12.3393
▁register	-12.3393
▁screech	-12.3393
▁sleeve	-12.3393
▁squint	-12.3393
▁waltz	-12.3393
EXTREME	-12.3393
Gremlins	-12.3393
affirm	-12.3393
relieved	-12.3393
▁Bennett	-12.3393
▁Bhatt	-12.3393
▁Cusack	-12.3393
▁DeSade	-12.3393
▁Hackman	-12.3393
▁Himself	-12.3393
▁Knef	-12.3393
▁Landau	-12.3393
▁Lecter	-12.3393
▁Munster	-12.3393
▁Odessa	-12.3393
▁Stefan	-12.3393
▁Sykes	-12.3393
▁Vijay	-12.3393
▁aggravat	-12.3393
▁agonizing	-12.3393
▁amnesia	-12.3393
▁boasted	-12.3393
▁boasts	-12.3393
▁burden	-12.3393
▁cockpit	-12.3393
▁combat	-12.3393
▁confounded	-12.3393
▁creaky	-12.3393
▁demographic	-12.3393
▁elicit	-12.3393
▁espous	-12.3393
▁facade	-12.3393
▁fierce	-12.3393
▁foreshadow	-12.3393
▁handicap	-12.3393
▁laboured	-12.3393
▁liquid	-12.3393
▁monochrome	-12.3393
▁paradise	-12.3393
▁perennial	-12.3393
▁prowess	-12.3393
▁quarry	-12.3393
▁royal	-12.3393
▁savior	-12.3393
▁sneeze	-12.3393
▁tattoo	-12.3393
▁trunk	-12.3393
▁undeniabl	-12.3393
▁underwhelm	-12.3393
▁undeserv	-12.3393
▁veneer	-12.3393
▁vulnerab	-12.3393
▁whistle	-12.3393
▁worldwide	-12.3393
Succub	-12.3393
ugitive	-12.3393
▁Charming	-12.3393
▁Cheadle	-12.3393
▁Clayton	-12.3393
▁Dahl	-12.3393
▁Extrem	-12.3393
▁GUN	-12.3393
▁Gregson	-12.3393
▁HARD	-12.3393
▁Permian	-12.3393
▁Ungar	-12.3393
▁Wonderful	-12.3393
▁astounding	-12.3393
▁bestiality	-12.3393
▁crisp	-12.3393
▁essence	-12.3393
▁illusion	-12.3393
▁kneecap	-12.3393
▁omni	-12.3393
▁possessor	-12.3393
▁shrimp	-12.3393
▁sobbing	-12.3393
▁underwear	-12.3393
▁unwitting	-12.3393
Possibl	-12.3393
Traffic	-12.3393
Violence	-12.3393
enegade	-12.3393
iPod	-12.3393
yramid	-12.3393
▁Allegra	-12.3393
▁Chachi	-12.3393
▁Grisw	-12.3393
▁Reitman	-12.3393
▁WTF	-12.3393
▁anarchic	-12.3393
▁bathtub	-12.3393
▁cigarettes	-12.3393
▁coyotes	-12.3393
▁discount	-12.3393
▁finance	-12.3393
▁insinuat	-12.3393
▁interrogation	-12.3393
▁junkyard	-12.3393
▁potato	-12.3393
▁sappy	-12.3393
earthquake	-12.3393
▁Beaver	-12.3393
▁Boorman	-12.3393
▁DAY	-12.3393
▁glue	-12.3393
▁ooze	-12.3393
▁sailor	-12.3393
▁smack	-12.3393
▁suburb	-12.3393
▁Comebacks	-12.3393
▁Hoog	-12.3393
▁Rubin	-12.3393
▁Scala	-12.3393
▁artifact	-12.3393
▁condescension	-12.3393
▁masochistic	-12.3393
▁pivot	-12.3393
▁renovati	-12.3393
▁slimy	-12.3393
Katharine	-12.3393
▁ANGE	-12.3393
▁Lauter	-12.3393
▁Sigh	-12.3393
▁anxious	-12.3393
▁cherish	-12.3393
▁inadequa	-12.3393
celebrities	-12.3393
▁Holland	-12.3393
▁Landis	-12.3393
▁NRI	-12.3393
▁Shelley	-12.3393
▁Siege	-12.3393
▁insanity	-12.3393
▁maddening	-12.3393
▁thwart	-12.3393
▁Collins	-12.3393
▁Daisy	-12.3393
▁Lerner	-12.3393
▁bookstore	-12.3393
▁carnage	-12.3393
▁porch	-12.3393
▁smut	-12.3393
▁submit	-12.3393
▁tentative	-12.3393
Pointless	-12.3393
uerile	-12.3393
▁Flick	-12.3393
▁TMN	-12.3393
▁accusations	-12.3393
▁blunt	-12.3393
cloth	-12.3393
▁Clown	-12.3393
▁Conway	-12.3393
▁whiny	-12.3393
▁whipping	-12.3393
BBI	-12.3393
enzie	-12.3393
▁Herbert	-12.3393
▁Nerds	-12.3393
▁cream	-12.3393
▁satirical	-12.3393
▁session	-12.3393
▁sorcer	-12.3393
▁urinat	-12.3393
climatic	-12.3394
▁Elena	-12.3394
▁Harvest	-12.3394
▁audition	-12.3394
▁invalid	-12.3394
▁outsmart	-12.3394
▁skimp	-12.3394
▁tarnish	-12.3394
▁telegraph	-12.3394
▁conceal	-12.3394
▁violate	-12.3394
▁Alba	-12.3394
▁Aranda	-12.3394
▁Raab	-12.3394
▁shaft	-12.3394
▁Bitter	-12.3394
▁SEANCE	-12.3394
▁crazie	-12.3394
(1988)	-12.3394
▁ABC	-12.3394
▁ALM	-12.3394
▁Carell	-12.3394
▁horde	-12.3394
▁Spaceballs	-12.3394
▁fetish	-12.3394
▁rhy	-12.3394
▁banter	-12.3394
▁cloak	-12.3394
▁enticing	-12.3394
▁galore	-12.3394
Program	-12.3394
▁Horse	-12.3394
▁Manech	-12.3394
▁Avary	-12.3394
▁Byrne	-12.3394
▁Sharif	-12.3394
▁mimic	-12.3394
▁razor	-12.3394
▁proving	-12.3394
▁anatom	-12.3394
▁mould	-12.3394
▁commandments	-12.3394
▁scythe	-12.3394
budged	-12.3394
▁Strangelove	-12.3394
▁newcomer	-12.3394
▁Unbelievable	-12.3394
▁liberti	-12.3394
punctu	-12.3394
▁crunch	-12.3394
▁effortlessly	-12.3394
▁Cousin	-12.3394
▁wisecrack	-12.3394
▁patrol	-12.3394
Diamond	-12.3394
▁Henson	-12.3394
▁coworker	-12.3394
▁dolts	-12.3394
▁demented	-12.3394
▁udder	-12.3394
▁voyeuristic	-12.3394
▁Hotel	-12.3394
▁ransom	-12.3394
Isabell	-12.3394
SIDE	-12.3394
▁DeathDream	-12.3394
▁composition	-12.3394
▁eleven	-12.3394
▁worn	-12.3394
▁Harvey	-12.3394
▁Jnr	-12.3394
▁dorky	-12.3394
▁loophole	-12.3394
Nevertheless	-12.3394
issimo	-12.3394
▁percepti	-12.3394
cloning	-12.3394
▁sweetheart	-12.3394
▁Yuk	-12.3394
bourne	-12.3394
▁damsel	-12.3394
▁Laughabl	-12.3394
▁clothed	-12.3394
▁ordeal	-12.3394
Ernest	-12.3394
▁retrospect	-12.3394
▁tomorrow	-12.3394
Turkey	-12.3394
▁Enjoy	-12.3394
▁Peaks	-12.3394
▁Antra	-12.3394
▁Couple	-12.3394
▁radioactive	-12.3394
▁Caan	-12.3394
▁Ellis	-12.3394
▁pesos	-12.3394
▁singular	-12.3394
▁hilt	-12.3394
▁TOTAL	-12.3394
Legend	-12.3394
▁domain	-12.3394
▁orgies	-12.3394
HHH	-12.3394
▁puppy	-12.3394
▁wincing	-12.3394
Niner	-12.3394
▁Gosling	-12.3394
************	-12.3394
▁diced	-12.3394
▁4-(	-12.3394
▁oblivio	-12.3394
▁forehead	-12.3394
▁shootouts	-12.3394
plicate	-12.3394
▁skies	-12.3394
://	-12.3394
▁6.3	-12.3394
▁Mantis	-12.3394
▁devote	-12.3394
▁roar	-12.3394
▁pollut	-12.3394
▁Venice	-12.3394
▁moleste	-12.3394
constru	-12.3394
ecil	-12.3394
▁babble	-12.3394
▁hesitate	-12.3394
Capital	-12.3394
▁chronolog	-12.3395
▁Brit	-12.3395
▁Darwin	-12.3395
▁Sexual	-12.3395
▁Killshot	-12.3395
▁reparte	-12.3395
▁Micro	-12.3395
optimis	-12.3395
▁chatroom	-12.3395
aranormal	-12.3395
▁woke	-12.3395
▁decorate	-12.3395
▁carpet	-12.3395
fetched	-12.3395
▁btw	-12.3395
▁quasi	-12.3395
▁regale	-12.3395
▁Besson	-12.3395
▁chords	-12.3395
▁preserv	-12.3395
▁Encore	-12.3395
iently	-12.3395
▁staple	-12.3395
▁conspir	-12.3395
arallel	-12.3395
▁bloodied	-12.3395
▁stripping	-12.3395
▁twins	-12.3395
▁barbari	-12.3395
▁khan	-12.3395
▁IBM	-12.3395
▁Ladd	-12.3395
▁Pacha	-12.3395
▁Glass	-12.3395
▁Combs	-12.3395
▁Rabb	-12.3396
▁Johnston	-12.3396
Cyclo	-12.3396
Taxi	-12.3396
▁Ealing	-12.3396
▁anchor	-12.3396
▁dynamite	-12.3396
▁osten	-12.3397
▁melee	-12.3397
▁tele	-12.3397
ulsion	-12.3397
▁tempo	-12.3397
ousewives	-12.3397
▁Flem	-12.3397
Ollie	-12.3397
Disco	-12.3398
▁amputat	-12.3398
▁adhere	-12.3398
Voyage	-12.3399
▁Smok	-12.3399
RIG	-12.3399
▁commu	-12.3399
▁assort	-12.3399
iscovery	-12.3399
OMED	-12.3399
hubby	-12.3399
RALD	-12.34
inching	-12.34
▁constrain	-12.34
Dialog	-12.34
▁collid	-12.34
▁LOC	-12.34
frog	-12.3401
Depth	-12.3401
buckl	-12.3401
▁radical	-12.3402
Open	-12.3402
pithy	-12.3402
▁Broc	-12.3402
dental	-12.3402
▁Hendr	-12.3403
Visual	-12.3403
▁lamentabl	-12.3403
ggert	-12.3404
owitz	-12.3404
▁choke	-12.3404
▁hydr	-12.3404
Wait	-12.3405
▁Denis	-12.3405
▁Disappoint	-12.3406
ONG	-12.3408
remors	-12.3408
▁predat	-12.3409
characterisation	-12.3409
Smart	-12.3411
▁gambl	-12.3412
▁dementi	-12.3413
▁BOT	-12.3414
▁relian	-12.3415
▁Palmin	-12.3415
Midnight	-12.3417
WAT	-12.3417
▁Audr	-12.3419
Steal	-12.342
AIR	-12.3421
▁Fien	-12.3421
Wishmaster	-12.3422
Brokeback	-12.3422
obey	-12.3423
Type	-12.3424
▁Pip	-12.3425
AKA	-12.3426
6.5	-12.3426
ndrak	-12.3428
▁soph	-12.3432
▁Odet	-12.3433
indulgence	-12.3434
▁Swi	-12.3435
cillo	-12.3438
▁Historical	-12.3439
scribe	-12.3439
▁coerc	-12.3444
▁Kristi	-12.3444
▁chemi	-12.3452
▁Athen	-12.3454
orously	-12.3455
vital	-12.3456
Delpy	-12.3458
inematography	-12.3462
GIVE	-12.3466
▁arrange	-12.3468
Survivor	-12.3469
Pierr	-12.3476
Unknown	-12.3477
lweg	-12.3487
▁downfall	-12.35
lapping	-12.3515
ayton	-12.3521
▁decay	-12.3528
▁Litera	-12.3539
▁creden	-12.3553
melon	-12.3554
▁permanent	-12.3556
atcher	-12.3558
nnnn	-12.3576
fictionalized	-12.3585
specifically	-12.3603
inexplicably	-12.3605
▁Ric	-12.3609
prude	-12.3614
Hook	-12.363
▁disbeliev	-12.3637
egar	-12.3651
Miles	-12.3661
index	-12.3669
1973	-12.3678
scroll	-12.37
softcore	-12.3707
Agent	-12.3709
kidnapper	-12.372
▁ideolog	-12.3802
▁Yanc	-12.3827
▁announc	-12.3837
tanic	-12.3862
versati	-12.3944
urgeon	-12.3962
Luc	-12.4023
pstick	-12.4023
crappie	-12.4051
1961	-12.4118
GOT	-12.4156
incarnation	-12.4167
Joey	-12.4177
▁(198	-12.4185
▁Circu	-12.4188
▁hinge	-12.421
supposedly	-12.4414
▁resid	-12.4425
Fast	-12.459
digest	-12.4653
ervice	-12.4739
NOB	-12.4752
praised	-12.4781
discussed	-12.4874
nerdy	-12.4911
▁stereotyp	-12.4993
1980	-12.5061
nybody	-12.51
Verdi	-12.5204
hackers	-12.5253
enhance	-12.5398
▁recognis	-12.5438
▁sync	-12.5447
spective	-12.5583
▁adventur	-12.5731
▁pathologi	-12.5822
▁constitut	-12.5921
experimental	-12.6057
enetically	-12.6154
stripper	-12.6389
▁provoke	-12.6512
Grand	-12.6653
▁suitabl	-12.6671
awakening	-12.6738
▁academ	-12.6818
▁visibl	-12.6834
▁enthusiast	-12.6939
friendly	-12.7101
syllab	-12.7165
Circus	-12.7216
▁appreciat	-12.7267
haka	-12.7298
quarters	-12.7373
1964	-12.7457
▁Petr	-12.7642
▁claustrophobi	-12.7817
▁pacifi	-12.7856
descend	-12.7887
▁archetyp	-12.7897
▁Davi	-12.7949
integrate	-12.8048
▁critter	-12.8119
▁circumstance	-12.8125
musement	-12.8181
ppropriate	-12.8187
ccident	-12.8192
ealthy	-12.8212
▁substanti	-12.8248
	-12.8311
q	-13.8291
=	-13.8312
⁄	-13.8393
ü	-13.8393
́	-13.9297
